node {
  name: "FirstLayer_input"
  op: "Placeholder"
  attr {
    key: "dtype"
    value {
      type: DT_FLOAT
    }
  }
  attr {
    key: "shape"
    value {
      shape {
        dim {
          size: -1
        }
        dim {
          size: 26
        }
      }
    }
  }
}
node {
  name: "sequential_1/FirstLayer/MatMul/ReadVariableOp/resource"
  op: "Const"
  attr {
    key: "dtype"
    value {
      type: DT_FLOAT
    }
  }
  attr {
    key: "value"
    value {
      tensor {
        dtype: DT_FLOAT
        tensor_shape {
          dim {
            size: 26
          }
          dim {
            size: 26
          }
        }
        tensor_content: "\207\273o=\327\303\\\275\257\000\334\276\347\207\366\274\214h\237\273\217\312\002=_\366\360;.2\220\275\307\377\321\277O0z\273%>\337\273\373\000,\275\350k\253<\257\352\325\275YD\235\274\326f\263\275~\261\316;u\354\344\274\312\231\006>\376\257Y>\265\272\220\274U\"\200=\343\252\032=\336,[\275\341\375Q>l\323\017>\020\234\004\275\203\236\337\277\207\334l=\274`\024\275o\307)\2738\347j<F\373:<|b\216\272\236\332*=\354\205\214:S7\317\274\305]o9\020\216\210=\033\230\314\272\006\177\000<\005I \275\325<\214\274\\`\035;[\203\214\274\025\262\311\276\360\037{\274\2010e\271\376\302\301<0\'\321\274\216\250V\274@\no=B\221\322=\351\373/>#\317P>\252\352$\275*\250\027<\037\233\375=\0079\244\274Z\270\330>%\203o\275^7<>\325\023v\276\332.l?`\036\227\276\256\312\203<x6\036=\363\314,=\005\266\375<E\366\260=a~2\275\201\232\212>\177E\005\275\302w\364\274V\260\255\275\033NN\274\273&\300\274^1\243\276\362*=>\035\252\241\273\205\324\330\274O\351\365\274\207\306\363;_%\326<\177\200\000\273\356\275\343=5\227R=\211\223l<\344\232\201?\242\306\260\272\210\337\324\277al\300\274!\324\203< To=@\232\230>\326\250d;\363\004\306=\324\032]\276:3\321\274w\"6<\314\2468\275\204\200\\\275\212\005\337;\021\213^\277\":w\277\260dN?O\344\014=\022\316\336\276\324\320/\275\2359m>\342gr>\006\221L\300\305N\232\275\234\205\217\2768\347\007=1K`>\t\320\336>\346\215(?9_\330\276\371>&\277\2642\301>\225\266\r\300\270Y\346>\257\315\204>\212)\035\301\275f\214>\365\371v=\'\371\035\277\366\3401>\347o6>\230\272\307\274\306\352\241>\202\\j\276ru6>\355\033\007\273\226\354\242\274\235J\216\274\235\240\325\276\037\005\262\2742\364\223\276W\010\332<\\\023\214\276D\306\204>r_l=+\003\254\274\243\336\342<\315Z\224\275\253\032\002=\245\306_=\250\022f=\274\335\274=s6\245=\233\272#>\014\361\352\276\250\272\217\275\327\362\245=X\207\205\275-\316(\276Y\007<\275,$0\275\006<\017<r]\242=8\307i\275VE}=3W\305\275\275\021C\275P!\026>{\201\244=~r\332;\327Q.\300\260E\212<\376\006|\300\201\3738;\305\331\313\273\344\351a=\006<\032\275\313\352C=@\335\215\274\324\274\226\275\301A\314=pj\206<\271\264\335\276;\224B=\373\036\367\276\330;\026=\\M\261=\337\347\302<\214\362\335=\247>B\275\277]\305\276,\304\240<y\356\274>^\344\031\276\302b\233>1\336\211\276\016H\'\275G\263\022>\\b\226\276j\252\260=\203\010\250>\234\277\021\275J\204@\276\220\270a\277\274\013\263\274\253\373e\277\207\035s\3002C\003=\331R\214=\317\350j\277\315\005\231=\302G\313?\267\224\261\276hI\334\275\2057^\277\000\025>?W\264\031@\017\010?>\t\026\010\300\033\245\270\277>\337\272\276F\270\300>\331p\231\276\005\275\237\277_n\230\2771\023O?\371t\021?c\375\254>1\237^>\302\'\233>\254]:@B\210\357?@\033\016\277\371~\r\276\005\001\006?\004\223\344\277\362\276\320>-\372*\277k\261\"?\010\307v>\345QT@\346\307W\277?tF\300\351Mr?\023Z\024\276)t9@*\034\002@m\251\325\275\270\317\020?\273\377\003\277I,\310=/\210\265\277\020\217\322\276X\317\242\276A\005t?EA\325\277\031\333\214\3007\n\205\277\305\356N@\331\327\030?\257\177X\300\361\332\307\276\276@\372?]\253}=o\313\244\276\210\305M\276\026\007\221\277\203nP>\022u.\277\031V\312\276\034W!\277\363\245\027\277\313\250[>\263\360\'\276ti\201\277&\323v\277fo$?\013E\320?\334\302\221\276\243\345\305>\336\2138?\360\017\003\277@\216\006@\241\261*\2766_\325\277\263\"O\277\327\325\243?\204\257\303=\177K+<\027\347\346\274\022\001r= \201}<A_\354<,\253\r=\243D\272;\006\355\205>\332\375>\275\002\335o<\272\377\324\274\3760\006\275\376\022\020=8\222\";\270\021\210<K\031\226=\235\031\313\273]\262\030=5zz=(\"\031;\243\265\202\274\376\310\356;\201\025\253<\203R\006\300|/I9\352\t`\275\354\016\210\276\3054\017\300c{\342\274@e\2349\233\366`<\260I\226\2737/\242\273\213\267\244\277\363Z\243<\304\343\013\274\244\014\251\273RV\n\272\336\370U\274pm\033<\333\377-\275\343s\034=Q\371\321;\"\030\265\300\004\210\000\300\206\323{<\351\035^:\250!\260;t\021\010<\031\332\223=\207J/=\234\t\255\276Y\214\313=\331((?7\024:\276\231\325b\275\326\025\235\2757\247\005\300\031\017Z\275\351\344\301\276+:\343=M;/=;\321&<I\247g=\r\024\010\276Y\256\234\272%\375\256\275\206\324\007\276Ju\251:(\354\\\276ame\276R\312\233<T\203\r=99\354;\031l\230\275*o\212?\363\316\262=\026\221$\276d\202w\275\336\257*\276\\!\217?}8\333\273\215\014\374;\211\035\216\276\250\002<>\353\372\251\275`g\255=\037\037\376<\205L\211\274\016m@\275\002\201E\276\274Z0\273\003\203\312=)\t\003;\313\027\312=\2477\242\274|\347U\276\363\n\304\273\232\376t\275i\217\260<QM\004>>\374\233\276G4\252;\324\225P>c\302\243=\226BE\275\301N \274\227\034==\003\324\205\275\322u+\275\265\2464>\2359\216>U(\201\275\351g+\275b\201\004\274\363\221\201\275\265\347\215=\267\001\021\272e\337\256<[\373<>xr\224=/O\211>\216\365G\276\225( \274\023\336\037\276\033^\261\275\261\252\370\274j\035\010\277\307\206B>e\256\003@\240\310\256?\032\2748\277\331W\243?\205\363\260\301w\274u?5\332\253<D\265#?HP\030>\177\354\365\300\360\240\344>\002\035\311?^jt>\364\2537?\321O\271>\006Q\320>\312.\222=cz\372?\226/\215>..\263\277\357\337\007@\205\2359<\343\276|\301\004\343\201?\2612\375=\321@m?\307\2729<\274m\231\274\251#h<\221\245\010\274r1\177:E\000\340\273C\354\032\274Qg\010\274@\002M\274\214\313\\;\3367\334\274S\230\207\274\300Y\222\274\213L\"\274\367o[\273\370r\'\273\326\241\262\273t\275*;\313Ea\274\273\220|<\344\024=<\275\240\310;K\024)\274\013\036\214;y\367\221\274\005\261\351\272=\025P@\213\336\332\277Ov_\275\035\340\332\274\002M{>\275\206L@\275\244{>=u\207?;$l\275]\373\212@\235|g\277(\254\313\2779\003K\276\017H\251?-\226w\300\240\016>?\225\027w=\304\322\226?\2776@\276\364\334.\300\251\264\264?\363<\265?!a\352\276\026\010\030\276\375\340Y\275\006\002&>\010\332\271\27663\331\274\245\330$=tb\320\275\222\324:<KJ\356>\217\317\303<n\371\214\276\013\222\250\2729]H\276\250JK\2759\2515>zl\263\275\262g\273\275\211\270\030>L\010\335=\305\'0\274\271\357\236\300\367\347\243<[\2763;M\216\202>n1\251>\216\303\266\277L\225\207>aeN\274a{\251=A\233\222\276\301/\344\274\346\261\033>.4T\276\245\262\263<\014\014\256>P\362K=\360\213\205>}\254U=\320~\251\274+J\274=bu\021\274\203\365Q\274\006p?=\313\0204>x\222\214\275\033\201E<\353\266s\276\307Zc\275\340\364\017>\224=~>>\371n\276J\216\357\275f\377\331\276\260\331\355\273\357`\205\275M\033\305\275b\021\247\275\000\032u=i\'\005\275O\223\202<\311\371\270\273\'\326\263<\324c\255>&\023\240<T\305y\275w\022\247\275b(\252\276/\030\004\276\215Pg\275U\321q>\331\345\316<\320\030\232>F\254\001>\237\014\362<,\256,=\222\037\276=\272\346\002>_+\355=\310\207\216=\346\353\201<\222D\323>+y\355>\"2O\276\203\031\026=v\014\366\275:S\031=\\\034]\275q\351\234\275\330\2642>\010\004\227>\255\377[\276E\327.@\316\371\306>\024\227G\300%\271\003@*P\211=s*\275\275\240Z\257\277q;N\275,\033[>\271\353\303?\336\235p\274\003\376}<\201\306B\276G\037S\276o\204=\275\323l\311\277\311;A<\243|6\276\016i\030<i/\200<\330\210\212<vJZ=\003\372\341<\232A\250\277\031\263\255;]\\\233\275A\222\255=\310\367i\274\331\375t=\253?\006=/\346\327=\337h\033=\242\350\245<\343\211\322=a\224\266<\277\240q;l\'\031>\245\364\201<\217j\231\275\370)\364=\351\203\"=\274:!=\217\252\361=\010\344D?\242\273\262=\272\267\233=C?\023\276\216\361\231\277\223\022L>\031\3110>\360\2430>\364iZ>\263y\016\277\227\000\223\276\032\014\253;^\254=\300X\245->R\036\327=\356\t\331=7\014\245\271\263\256\255=V\311=\274o\231\311\275Z|\244\277.\317\365=\275\334\364\277X\254\370>(\227\307>u\336i>\340\360F=\203d\242\276\237B\312>0;\217<\233\007\261=$\n\214\276\3165\242=g\302<\276\372o\r\275JD\273\275\341.>>\245\362_:\226\276\\\276\326\022\335<\036\201\032>\2206\037>\200J\207=b\343.\274>\332\305<\375%\277<\305\337>\274\304\253\022>\327\215\271<t\273:\276\233o\036\275"
      }
    }
  }
}
node {
  name: "sequential_1/FirstLayer/MatMul/ReadVariableOp"
  op: "Identity"
  input: "sequential_1/FirstLayer/MatMul/ReadVariableOp/resource"
  attr {
    key: "T"
    value {
      type: DT_FLOAT
    }
  }
}
node {
  name: "sequential_1/FirstLayer/MatMul"
  op: "MatMul"
  input: "FirstLayer_input"
  input: "sequential_1/FirstLayer/MatMul/ReadVariableOp"
  attr {
    key: "T"
    value {
      type: DT_FLOAT
    }
  }
  attr {
    key: "transpose_a"
    value {
      b: false
    }
  }
  attr {
    key: "transpose_b"
    value {
      b: false
    }
  }
}
node {
  name: "sequential_1/FirstLayer/BiasAdd/ReadVariableOp/resource"
  op: "Const"
  attr {
    key: "dtype"
    value {
      type: DT_FLOAT
    }
  }
  attr {
    key: "value"
    value {
      tensor {
        dtype: DT_FLOAT
        tensor_shape {
          dim {
            size: 26
          }
        }
        tensor_content: "\220\377s?%E\270>t%\374=!\323M>\243~G\275\367\222\t@\007\343\342\277t\211\234>\364\312\215\277\000\274U?\274\320\017\275\315\330]?r\254@\275\3177\273\276\202\203\252\2776\373\305\277\3117/?=H\010?\367F\033\277n\230\010\277KE\333>\030Za?li\222>\366K\004>\200p\371\276S:\317\275"
      }
    }
  }
}
node {
  name: "sequential_1/FirstLayer/BiasAdd/ReadVariableOp"
  op: "Identity"
  input: "sequential_1/FirstLayer/BiasAdd/ReadVariableOp/resource"
  attr {
    key: "T"
    value {
      type: DT_FLOAT
    }
  }
}
node {
  name: "sequential_1/FirstLayer/BiasAdd"
  op: "BiasAdd"
  input: "sequential_1/FirstLayer/MatMul"
  input: "sequential_1/FirstLayer/BiasAdd/ReadVariableOp"
  attr {
    key: "T"
    value {
      type: DT_FLOAT
    }
  }
  attr {
    key: "data_format"
    value {
      s: "NHWC"
    }
  }
}
node {
  name: "sequential_1/FirstLayer/Relu"
  op: "Relu"
  input: "sequential_1/FirstLayer/BiasAdd"
  attr {
    key: "T"
    value {
      type: DT_FLOAT
    }
  }
}
node {
  name: "sequential_1/dense_2/MatMul/ReadVariableOp/resource"
  op: "Const"
  attr {
    key: "dtype"
    value {
      type: DT_FLOAT
    }
  }
  attr {
    key: "value"
    value {
      tensor {
        dtype: DT_FLOAT
        tensor_shape {
          dim {
            size: 26
          }
          dim {
            size: 52
          }
        }
        tensor_content: "\027\363\220>\250\304\224\277oAB<\205\230/?\0323\352>\267\025\273\275\220\240\234=\\e\336>\031\323\363\274\001=\334\275\201x\027\277i,<?\315\216\036\2767\311\263?[\300l\276\334oR\277\304\262\224=\322\033\021\277\251\215\326>\005\367z\277\243z\030\276?\230\">\220g\267\276o\306O\277In\327\276\t\217\252>\r\036\272>\340\022\031\277\262\254\312\276\333\354\010\276\237\233\322>\214&\321\275\002\013\263>\3222\213\276=&\274>bv\377\276XcP?\342\212?;:m\275\276\331\007\001=\213K\346\277\226 \030\277\366\246\020\277H\314\021?W\357\033?\372\213\265\276i\032j\277\325\013\245\277\322\303\000?\004\330\223=\002}\374>\351\nc\277\214\367\324=\037\366R\276\212\373T\274\237\000\006?\257\"\005\276Tz\024\277\353\276S>)-\000?U\345O>\362\270L<\277\205\316?\317\'\021?o\224e>\350\256\006?@\220\332\275\004K\255\276g\036\343>\026#\030>\007Y\251<\220,h\276\267\200+\277E\301\222>\332[B>\021\013\025\277\226\002U<\226\273*\2761\251\305>~6\212=\244d\270\275yH\331=wx\307\276\375\327\232\275o\250Q>\313-\214\2765F\256\276\336U\t>c\321\201>\374\257\003?\314\017\217\276\177Qb\277\205\267|?\311\006\r;\200\207\234=8d\230\275\372\356\230>\022\375o\276\2445|<\321\267\234>\315\021\363>*\2732\276Q\330\326\276\227\300\354\275\332\330D?\337>\226\275\032\000\321\275~-\254\276~\001y\275\302gh\276\250c=>\206\346\205=\334\002\031>\341\241/\276+\214\005\277\202\243\336\276J\003\257>\335\350b\276\353\265\247\276i\264{?\257I\036\277`\257\221=e\332[>\310~\356>hR\256\275\261u\316\276\322Ob<\000d\313\276\340\010\314>o%\212>\267\201\241?\205\364\374?k\200\216>7U\t\276h\361y\275O6[>\246\251\233\276\217\2700\276\220\314\242>\305t\036\277O\260\253=A}\330>\253\326C>\374I\227=\335v\366\276h\232\006<a\375\377\2754\306r=\375\nB\277t\367r\275\336s\374\276j\002[\275^\241\204>\317\204->\004\312\312>\200\272T\274\336\273\301=h\234\253=\031\342\240>\3762V\273r\324T>\347\215\033\275\333g\335>\355\354\325\275\347i9\276\302\355E=\214R\346\275LF\201?vl|\276\256\261\272\277\272k\037\2776\356\231\2763\017#\276\353\351:\277\333\273]>=\215\220\276\302\255\363=\325\357\231\277\344\354x=\210`\207=$\214k\275olz>a\257\001\277aY\004\277\334\230\251\275\t\313\350\275\267\206\264\277G\225\200\277\244k\217\274BgZ\275:?0\276_k\242\276,\216\006\277>\311C\276q\021\022\276\232!P;v7 >\272o\304=Ma?>\037\347\257\276Vz?\276\340\177\t\273\305\331\267\276\n\315!\275\364m\337\275\t\366\203\276\243FS\276Y\311S\276YC\226>\305\321\220?\273<\304?r\034J\277\314\370\335\276\221\220c\277\325]\001\300\344\357\023>\243\224\333>\270\264\315\277\347\216\215?\355\224\264?&\034\210@$TG>\266\301L\276\302v\\>\270\215y?\3206\237\275\177\346\350>i\177\355\276\335?\377>,\355 \277\213 \236>\203\364D\276N?\243\277~\177\262\277\025;F\276\333R0\277q\317\003?tQ\211@\351\024\357?`2\001\277\206\257\313\300d0j\275\227\254\276?+\236C?6\246\325\277\263\'\260>%\230\205\277j;\026?\347\330\001?\362\340[?\2446\214@\277\224\026\276@\360\214\277\360\031~\276I\021\344\276\213\237E>\2656\035\277\377E\315\276\037\030\024?\216HM\277\036Gy\276\203\346\204\277}\323\241?\0161\003\300\\g\246\276\350_C>i\305\263>\303\265.=v\243F?\232\273\025?\215\371\325=]\236\207=:b\014\277u\006\317\275E\267E=\321\270\013\277\277\331S>\350\216t\276\272C\375=3\275I\275=KJ\277\275D\200\276gQ\277?\244D\237>\361\334\354\275,\2526\277\001\222\254\275u\232#\2774\\\035?\306+A\276L\241\013?QX\261>\200\244\277\276:\347\316>@\370o\277P\257V>\336;\337>\206\n0\275\210\302\266\276\302\024C\2768\357\253\276\302^v>^\376\336\276\205\337\203?O\006\244\274\374\316\262?\357S\313\275\200\303\016?T:\215\274N\371\302?l$\243\275Nvy>^\352\010\301j\002\340:\343\207\001=\345\014\027>W\376\006?\036\225L=+^\362=S0~\276\017AO\275\353\274\034?\371D\222\276\255\221`?\313Lx\276\306G\207>\346o\300>\253\363!\301\273/2\275/\346\326\276R\253\023>\026\000\275\300\250<\214>h\010\244\276\237\341#\275\255\003\230\276\364\243V\276UF\244>\212~l\277\323%\201>X\212\033>\007\376~\277\251\236\310\276\363xF\2769\311\231>\223\005\231\276\365\202\220\276\313*\315>\376b\311\276\032\0371\277\013\227\"?\004\264\220>8\245\025?gf\021?\300n\275>\205\277\325\275\321\224\335\276\027?\203>\254\262\271\300\023\232\242<\244*\316\276r\266\343;i\270\237\276\005\357\262>\315hr\276HtC\273\317\273\027\276Y\215\243\275B\231\246\276\335\226\035?\231\002\365\276m\270\317>\235gK>\315\203w>$\332\033?z\243\301\276\214\036\226=6-=>\273v~\274\375\341\312\275\346\223\261\275\333F\007>o\t\331\274eJ\360\276^a\\>\223\023K=\271\274\013\277\037(\221\276\244M\267\273#\237\246>%M\250\276\272\021\202\276x\254}\276\314\025\241\276\240\\\313>\024\251\320\275\242\037\213\275\370\235=?\017\374\340\276^*\360>\2144\001>\224\264<\275\037zr?/\275\247>\211\3510?\343WG\276\257\"\246\275\345\214\222?\222\245.\277H\206\206\276P\024\266\276\377\236)?j\035\277>Z\356\333>\223\204\302>\343g\353?\021\263\341\276O\360\315\275\357S\302=\000{\376=\345\302\003=vdP=\003\025\341<&\345}\276}=3\275\336\316\262=C\003\037>\354\323I>E\207~\275j\207\335=:D\267=\027\234\326\276\214\243\207=\233\367\331\275\216&\231>9\301\016=g&6\275\243/\031>\3139,=A\3334\277\370K\264\275\240]\001\275\356\035O\300:\337 \277~\236k\275m\021\240=\016\361J>\261`i\273rU\216\274\"\033:=7C\251\277\323\351\212=w\230h\274\3027\266\277\207\001=\276\370\362\356>\311\2411?\332Z\034\277&\024(<\324a\032<@\304\243>\222\356\325=\232\3761>C\303\254\275\254\345\300\276\212rh=\273\035N\275\372#~=2L\254\276O\264>\300\261e!>\371y\330?^\014\255\276\231\342<?6u\317\275\202\270\375\276\263\255\206>\273\333\217>@\2703\275\371\275\217\276\203\227\330<\260\330\256\276\3173\032?\261s,\276yl\224?\312\275\302\276FI6\276\020\030[\276{\343\225\277G\346\230\277\251\354k\276\375\254A?-y\005\300/\217\212=\200B\227>p\206R?\005l\265\276?\210\000\277\023\340\216\276\356\326\217\275\177f\223<\357~\223\277G\024\211>\207\201\021\276\307\277\207\277KY->jO\325>9\255\026?\227\026Y?\237 \275\277U\361C?\354\037\260?\241)\256\276\024>\032\274\242\362}?\0012\312\277\246\330d\276\032%<?i\353m\277\220\177\211\277R\256\277\2763Bl\275\224\252z\274\224;M\276\206\236\005\277\206\204\321;\363P\251=V\325\366>T\213\300\275\033\213-?v{\373\2776H\255\276\312V.>\200\360\211\275\215K\254>B\336\000\277^\007P\275 @\222\277\377P\315\276j\315A\277\272W3\276b\255\277\276\303FW>\271\035\311=\256\035\014?\351\362\257\276\031\264\341=\325\365\036\276o\350A\276\332\232\231\275]O\221=\351\023\374>\211\267\312\276\261Q\025\300\267\220\245\276A$Y?T7\240\275`h{=w\033+>tw\313>D0\333=V\224\014?a\026\016>\200|\333\276\206\343\326\276}.\342>\025\nI>J\336\004\275\230\3157\276\r#8>\304\327\303>\330\360\'>\244\340\226\276\376\014j?$\036\243\276\225W5\276\331\220\210\276\335\347\204?py\247>\332j5\276\317Vc\276\245\210\217>:\024\243\276\200F\014=\345\374\244\276\016\263\240<\210\240\213>\022\3507\276\2618\232\276\231,\233\276\346Af\276\272n+\277X\260\214>\340\376\236>\002\rW>\342$`>\027\265\027?\312A\020\277%\277\250\275%\361\235\276:\017\227\275K\366E>>v\354<\350\353E\277}zs\276``\272\277\333\034\000\277\'\372o>\326\251\224\275\034o-\275\342\232\225?\3266{?\205k\270>\324\023L?\013\032\242\275n\337`\277\\\323\226\277\274\'\226>\304\250\323=2\324$>\020\241a\275`\363V>\372\224\225>\000\335\363\276 \217n\276ns\332=\243=\265=n=\021\275\200\377\330\276\331\001\357=l\351\034\273\321v\251\300\023\334f=g\235\233?\370\276\000\300\314(\241\275\300\246\302\275H~\026>\274?^\2769\301p\276b\3234>DI>\277U\352\r\277\326\227\027\300\267\257\353\275\255\005Y\276)KU=D=\314>\227ki?\347k\206\275;-\373\275\032\273\022\276\373h\303>\236\240j\275\215\275m\276[\350\217>\375R\355\275\253\240\327\276D\016\251\276\3444M?\"\'c=\364c\306\276bV\311\275z\0009\275z\357\367\275\352\301\272\275\037\215\n>\234A\002>bC\215>\237\310S>.7\370=:\036U=\304\343\343\276\222\217\374\275\030y5?%\227\235\275)\250;\277\024\261\225=\365Ut=b$\277=?VX\276\301\021\253=\344a\320>\275\330O\276\207*\021\276\2351,\276\333\314\346\275v(\331\276\234\210\225\276-\t\220\276\275\036\272=.\217\265?\261\332\201>\232O\013\277#\212\263\277\233\231\240?\204\nZ>\263\r\213>o\237\024=pL\203\277?\310\022\276Z3\223=\014EU\2758fl\276\024m\006=\303\3409>\277\312)>\337\374\235>L\241\010\276:\035\031?t&9?\262?j?\237\210\305>\247Zh\277\302[\243\276\02554?\276\257J?\325\236\006\276\226\321H<\274\252\357>\300\377\">\263j!=\207J\360\276\334\360\221\274M\203\017\300\000j\271\276\2317%\276]Z\322\276>?\332>6I)\276mT\247\276\202\221\267<\326\t\251?\220\270y>T<\277?\017]c\277<0\025?T-E\277o\235\354\276\354\274\320=\376\274\367\276\2173\275\276%o\016\277\204\254\306\276%\010\323<\324\276\221>R\214\032>\r\275\006\277\232qM\277\350zg?\177\365P\276\377\036\237<\310\315\250=+\t\r?\356C\302>M\2660\276\\2*\277o\016#\276\303\331\251\276\027#(\277J\257)>\251z\240\276\273\315\233\277\3360\301>\006\220I\277\251\007\357>\024\307\022\277\326\272\315\276Nl\023\276;7\217\276\361\222\317=\203\r]\277eS\\>\345\262\201\277\027\030`>\233\022\235=x*\201\276\006\270N\277\374\223\362=\237\253\233\277\343OT?u\357q>\257\222\315\275\021\310\273=mN\033\300c\3059\277y:.\275&&\361\277\301\330i=\271\020\344\276\320\232\307\276r\227\212>Hw/= \207)\276\205\314R@\304\"\'@\005\257v\275\300\362g\277\032\233V\300\327\252*?\004\275\355\276\r\363\330=h\340\001>\206\262\023\300\330\3626\277\014~D>\266\227z\275\3516\254?\244Pv\276\374\277D\276R\264\007?A\323\262\276]_\206\276\227\207<\300\245o$\276z\351\202\277\027g\210\277\006d=\276\2660\345\273 .\327>\376/\206\277\'\245\213\277j \271>\355\236\031\277\014T\374=6\354\247>\230\244N?G\272\315>?s\217\300S\257T\277\260\204_\277\303~\017>\031\270\263=\376\231\306>\315N\226=\356m.>G\330\251>q\020\204\276D\211v>?\223\241\277b\032\021\276\270\267J>,\006\261\277S\302\207<r\360\240\275$\314*>\034\243\361>|rJ>(\013\017\275\r&\305=H\271`?\360\332\235>\202\302\227=\317\377\345=\010!\036\276R\233\036>\305\352K\274\017e\202>\215p\332\276\rD2\277\035\233\215\275\\\324\265=\326P\014\277\374m\006\276\375\257\236\275-\220\322>\007\010\234\276\320\254\021?\210\367\250\276\354b\277\277\312\307\200>a\302\271\2759v\316\274\3618\215\277\224\273Q=\251\324\344\276M\322\233\276\252>\004\275\327\361\237\275]\363\365\276\374>^=u\000\245\276\347\211\022?\260\346L=\226\234\001?\031\371\200\275EM\345=4\377\033<\026\000\017>\366h%\277\266\226\001\277\366+N>\336=|>}\236\325\276\024^\275>\341H\217=#m/>\256\315\304=\307\260\215\274mr\217>\3361A\277;\023\336\275X\030\231;&\027\325=\212\326??C\307\252\276\323$\'\276U8w>\212\301\220>Bls\277`\225\373\275\225\031*>hs\337?@\353l>FL`\276\305=\337\275\265}t?,k\372\275\263\3305?\023\277l\275C\343\326>\256\324\020\275\342\273}=\316B}\275\3441%\276\340\373\315\275\033E\220\276N\364\215>U\373\372\275\363r\377\276\362t\252\275\304\374\246\277\'n\221=\231B\255\275\271\206\265\276\025\2303\276\227{\333>\206N\200>Rk\354\275\334\027\327\275\355\366x\277\353\243\022>\255\272b\274g\307\024?s06\2763\205\025>JR\225\275\271=\262>2\224\344=a\262^?\360U\037\277\271\357)>$\210z\276\302t\333=\302\\\034>[\276\027\277\367\344\"\276\377l$\276\215\3760>&1\311?\001H\215\275\234<\313\275\376W\202?\241\210\216=\311\347\303\275\275xh\276>9\352\276\367!\273\275n\340\233>f\314\367\275\330\223\370>QE;\277\033\273\\\2745\376\000@t^\265\277:\004E\277\356\321\225\277T\320\355=_\331\345=\305\335g\275\177\222s\277\274\200\377\276\007\274&\276\031.\027?kv\265>j\240\206\274\230\300&?\006f\361\275\322\230\014\277\307]\244\2756\025\265\275\003\206\250\2753\333\300\272\2169\347\276\020\004\242\276\375\003\276\276I\366\361=@\252\202\276\354\333Z\276\263\210C>M\334\271>O\276\372>\211\306.\276\346g\003\276A~\207\276\372tL\274k\022>=\202\221\366=\321s\311>\353@\367\273\301\353o=\214:\'\276=-\336\276\336\027\310=jc\255\277\331k\014>+\'8>\275%\216=\\\005\347\2755\336\247\276\037\363\271={/\312<\320\r\256\276\355\341\311\276\314Y\306>\003\014d?y\254/\277\020u\r\276\234\211\353\276\312\333m?\344\030E\274\275\225|>\366,\345\2760o\367\275y\006C\277\323\227\305\276\025\245N\277R\371`>\242\022M\277\202\361\225>:\264\327\275N\362\314\274\210\255\305=\203K\022\276\005\340\233>\233\344U\277>\276\274>\344\023\221<&\241\206=\302\222e\277]\007\243>6\267\026>ML\373<:p\315<F\311\215\275.\355}\274i\242X\300<4\234\275\252\214\034>[\374\204>\233SR\276\245,\023?\346\327\270\277$\344[\276\026\026d>\373\306g>\310J6=\3030\265>\252\261\001\277\235\250\003>.\003\222\276\007\204!\277cY\204<\t\315j=t\020\323=Q\333\345\276K\363\033>7\221\275>\221h\226\276\267m_=\304\355\217>\212X6>b%\336=\336\033\260\275-\nb>\317\253\035>\252G\t>C\244\231?\030\364\303\276e\206,\2772\220\311=\227<\322\276\314%\027?JM,>6\365x<}\325\217\277\300zQ?k\377\204\276\020c\371>\2361:>\325\244\023?\347#B\276\337\201T\277\261n\273\276\333\260/>\244=N\276\216\002\216\277Y.\332\275\224\257\261\277v\213\004\277\026 \214>sA\237\277\316\251<?e~\005?\007K4\2770m\\\277\355\002\023\277F\363\327>\242\374\r\275\263\331\306>\267\345\233\277\335,Z?`5\310\275\312\263\"\277d\376\261\276N\206\232>\270\251\210?\033\001\237\276\377\377\353\275$r\312\276\244\036]?\242\n!\275A\n\211\274\2137x\277\326Q\025>\206C\014?\312\315~?\"Pz\277\2322\220>XL\222?\366\020\360>i\023j>\020\300\022?Q\345\216?\320\244\320;\302\245\331>z\310\263\277\252\013\306?\247\013\335>\025\002#\276`=\271\276\005\035\236?[\337\240\276\210\370\205>\207\274\302\275\200\210\320=\020P\264>\311\275J\2756\333\024?\007}\265\276\024\332\002?\256t8>\235\021\177\275&\274c\275o\241&?\207@_\277\016\305f\276\261\275,?\313\315\235=\210\343\346>C\237\226\275lW\337>\254\021$>\372>\007>c\035T?I>\304\276\270\3549\274\367\\\023?4\033\207?(\247\014\277\274<\004?\256\201\225>\376J\275\275\200\265$\277{\236\003\277k\331-\276\333P\360>0\022`>\324%\031>\312\332\206\276\3603\352>=1\036\300\314.\036\277F{$\277\243%%\277\344\232\230?%o]\275\010M\254\276\221R\001\300\252K\020\277H\234\n\277\234vR=\2437\006\276\263\362\270\2762\210\2059\342\201$\277\374\256Y?\032\2046?1(\000>\2041p?4\261\233\276\031N\036>\362e\206>\004\242n=Y\372t>\322\256\256\276\372\020\314>\\\366z\273\010\355\006>\343\202a\277\267\227\236\2769:G>\266)u>\002\220\341\275{\213\345\277\241M\002>^\311\321>5U\213\276\213\027&?++\211\276\265\307\234>I\373\306\275j\2348\276\365L\251>\010\036\035\277\023\031\374\275\346\243\333\275\357\300\257=\230\275\034\274I\027\217\276U\324\343<\332\244\233\277\'\221\315\274\330\345\025?Y\265k>\371\'[=\304F\\\275$u\007\277-\2271?\265\220\206\272C\021\n>\321\210\370\275\331\300\207>`\301\241\275\200\316k=\373\247z\274Ed\240\275f\264\315\275\033\206\244\273_\205\334\276\nM\016\275\002\231N\276\304\027\253>\277u\301\275Bk\272=\006\241\354\275Y\264&\276\377\241\014\2749p\207>\372\302\251>\214\226\231>)\244\322\276\312V\344\275\223z\220>f\001\023\277q\302\225\276\2172\374=\3444\206=\036\204\032?\205n\214\274\037\223\310\276s(\005=\312\337p=D^\016?g\266\020\275\'\034S\277\205\205\254>\364\325\000>\022\217$>\2558\235\276\342\366R\275h\305+=\311HM\276\353:\"?\371M\323>+\245@\276\230\313\233>k\"\355;\365\267E\275\330\317\017\275\263\017~\275[\233<\277I\255\343=\244-\027\277\302\355@=\342\277\212\275\343R\010?yT\270\277\022\274\241\276\212o\300\2764!\244\277C\217\240<\036\377\225\275\250\336\373>C\'9\2775\3226\276~hs\275L\300D\277\273\365U>\365Dw\275i\007\265>>-\345>\242\020\014\277\252m\204>\017\237[\2778\345\203\276\266!O>\036s\023\276\314}\006\277\033i\026>\323y\214\276O\251\035\277\211#8\276{\331\307>\246\007\236>\027\261\037\276|(]>\207\364\223>\003\343,?zf-?\264Q%>}G\024?\372\201\252\275\324\265\n\276b})\277EX\027?[\371\217\276Y\347 \277\265\247\200?Y\264\355>\037\246\201\276\335\005>>"
      }
    }
  }
}
node {
  name: "sequential_1/dense_2/MatMul/ReadVariableOp"
  op: "Identity"
  input: "sequential_1/dense_2/MatMul/ReadVariableOp/resource"
  attr {
    key: "T"
    value {
      type: DT_FLOAT
    }
  }
}
node {
  name: "sequential_1/dense_2/MatMul"
  op: "MatMul"
  input: "sequential_1/FirstLayer/Relu"
  input: "sequential_1/dense_2/MatMul/ReadVariableOp"
  attr {
    key: "T"
    value {
      type: DT_FLOAT
    }
  }
  attr {
    key: "transpose_a"
    value {
      b: false
    }
  }
  attr {
    key: "transpose_b"
    value {
      b: false
    }
  }
}
node {
  name: "sequential_1/dense_2/BiasAdd/ReadVariableOp/resource"
  op: "Const"
  attr {
    key: "dtype"
    value {
      type: DT_FLOAT
    }
  }
  attr {
    key: "value"
    value {
      tensor {
        dtype: DT_FLOAT
        tensor_shape {
          dim {
            size: 52
          }
        }
        tensor_content: "\241\336\002?n\364\267?\245\207\030?\r-\206=\316\332\212:\255\036\274?\036\274\364\277\227\374@\276\374I\\\300\025\r\006\276\032\276\340>XNo\277H\020\210\277\333\377\305\277\036\025\353\276.\352\010\300U\205f?\007\260\036@\353\347\205?0\231\263?\350>=?\023\010??\227\031\262\277\270\207\033>\300\361z?\356\253\303?\3768\030\276\036\304\035\277V:\020?h\205\003>\3644\355>\020\375\005@\003~f?\342\267\214?\\\2338\2779\225*\276V\352\230?\023\2607\277\261\304\200\277\031\216S\277v\036\217>\234\372B?\016\004\234\277tw!\277w\257\330?\010t\266>\211\212\373?\031[\250\277\024\364\030?\" \370>\217\264\021\300\023oI>"
      }
    }
  }
}
node {
  name: "sequential_1/dense_2/BiasAdd/ReadVariableOp"
  op: "Identity"
  input: "sequential_1/dense_2/BiasAdd/ReadVariableOp/resource"
  attr {
    key: "T"
    value {
      type: DT_FLOAT
    }
  }
}
node {
  name: "sequential_1/dense_2/BiasAdd"
  op: "BiasAdd"
  input: "sequential_1/dense_2/MatMul"
  input: "sequential_1/dense_2/BiasAdd/ReadVariableOp"
  attr {
    key: "T"
    value {
      type: DT_FLOAT
    }
  }
  attr {
    key: "data_format"
    value {
      s: "NHWC"
    }
  }
}
node {
  name: "sequential_1/dense_2/Relu"
  op: "Relu"
  input: "sequential_1/dense_2/BiasAdd"
  attr {
    key: "T"
    value {
      type: DT_FLOAT
    }
  }
}
node {
  name: "sequential_1/dense_3/MatMul/ReadVariableOp/resource"
  op: "Const"
  attr {
    key: "dtype"
    value {
      type: DT_FLOAT
    }
  }
  attr {
    key: "value"
    value {
      tensor {
        dtype: DT_FLOAT
        tensor_shape {
          dim {
            size: 52
          }
          dim {
            size: 26
          }
        }
        tensor_content: "\202\324\014?\310\236\220>\3143\021?jm\014=\352kn\276\034\213o\275\037\034A\276\240\342d>\264k0\277\270n\027\276Z\227\305>\340\254&\277\034ib>\370\375\201>\371\207I\276Yj\256>\255*\323>\177Co>%\312?> \332\001?\332c\326>\016\375\304\276 CA>\036sJ\275F3\262\276 \276\246>[s\367=\032\n\004\277\260\007:>\247\r\325\276\224\030L=\244~\324?\233\265U\277(\315T?>\262\332\276\002\254}?\r\1771\277,\031\262>\331\230\230?n\027\251?\310\342L\276,T\220>V4\214\277\312\203\026\276\336\316\246\275\211\311\217=[\337\263>\356d\002\274\201nD\277\3562\347>K\250\016?W\215\020<5\020\034?v\266\360>\037\361:\277s\233\357>\324\221\227\274\256X\353\277D\024\226\277\263P\034\275\033\231`>\177\327\006\276\253,\000\2771\370\325>)\214\374>I\340W\277\354\222\316\276;<\200?\026\331 \277\003\352c>\251\347\023>T\345\206\276K\263\214\276s\234\234>\204\3143?\256\215\351=\354\322*\277\262(\035>.\302\002=\316\302\343\276\325\227\352\276\025@2\276\275\215\227>\202n\364>m\261\202?\212\306\276>\t\010P\275\304\307U?\020N\233>\254J^\274\377\366\371\274P\321\377>\r|\216\275R[\310\276=\347;?\213{\017\276\243\004+>\344+p>\033\225\201\276\275\200\002\277\227\250\360\276\237d\304>\315z\\?W\303\003>\245\'\n\277\275#\320\274]\037\255\275\004}\355\275\215\371\301>J\373\246\276\361U\'?+\214#=L\022\035>\325\215\367<\320\326\251\276B\352r?\203\233\255\275\336/\372>|\344\205\276\270x\021\276\271\263s\277\254\216\303\276)\245\372\276\031\205\216\276\231\316\320>\233\335j>\350>\215\275}?\233>\322p\r>F\034e>C\027\221\276\276\267\327>\340\220\212=/\254t>\314\372\034\275@\344\222\277g\306:\277\330\247\312\276\346\326\341\276\372\242&\277\307\316\236>\330%\202\276o\342\321=~o\206\277J^\260\275\237T\353<\222b\312>\335\375\034?p!*?\023\247\300>\2439\233>_\300\340\275l\3063?\275Z\244\276\276\004\255\275\004\210\034?\005\017\250\276@\270X=\342\250-\276\264\267->\363O?\276<\351\247\276\204\355\264\277\237=\030\277\314\230\232\276\377\331\003\277T\021\000\277R\337\370\276\205\363a\276\271\313\r\277Vr\233\276\327v\023\277\266\006\375\276\204\234\321>\272;\216>\377\037\247>\264P\264\276\321\262\366\276\000E\331=;3\226\275z?t\276Lu\206=1\351&?W9\322>t\027\341>\255l\022\274`s\020\277\200\230\236\276I)\215<\371\241\027\2768\243\010\277\004\020\013\277\274\354\222\276\265B\352\276\013H\313\276H|\357?)\377b\276\030\356\223\276\223X]>\316\234->\312\354\316>\375\254\367>\017\311\023?\314\003\376>\363\032\224\277\335\303\340>\007N\202\277\305\263!\277}\321%\300\261\254\333\276\247\010\240>H9\335\276\264k7?\307f\276?}j\200?yB\311\277Wt\203>([h\275\257~\006\300qP]\277\223&t\277L\021\252\277\30059@W\311\345\277\005\201\017?\343\030\247\276\263\005\320=0\334\304\277\224\253\276\276~LS\277LKs?D\227\371\277B\270\241?F\\\223>\232Hi\277\241\034\207>\002c\217=\034G\324<f8\'?\201\372a<\000Ed>Ym\211\276\337@\321>\365\022!\2777\n\327\277\364 \"\276\177\033,\276W\375E?\341\203\376>\241;\336\276E\276\250>,\363o\276V)O\277\345B\207\275$\261\253\276\016\362\035?\223\2653\274%3\307=a\317\217\276\376\r\220>\013\217\272\276\003\354\037\277,<??k\375\325=\344[\321;\016A\305>!4\370>\031\320\273>\351\r\341\276or\274>Bw3\277\246\375\206\276\260V\037\276\263f\253\274\376\256\205>\331\264\344\276\256\306\002?%i\264\276\273q\266\277\266\210y=\334\270[=~\2136\276!\177\216\277\314\230\301=\241\262\350;\024p\202?\315\3732\276\310\320E\276\0045\335>\364}\226\274L?U\277R\256\231>}|\330>\313\340@>*oG\277\036^\037\276\303;\304\277\317Y\376\276[k\200\276\007x\221>\217\246\337=<p\333\276\216\254X\275t\000\271\276F>\367\277O}\304>\230$ \276\264e\274=T\321\207=U\360\253\276\260\024\255\276\352\233\002>\346q\r\276\005\351\t?\352\2622\277c6\337\275\202<\202>;\275\350\276)\273\336\275oL|?\313\255s\2776\272\371>\23565?\315\227v>\266w5>IA>\277\230\373\200?p\023\304\276H\3026<\363F\307>\266V\227?\342\302}\276\352\257<\276\311\210s\277\325$\236?\370\344\247?E\035r\276\354L\016\277\220\233\202\276\277\207\206\276\357H\022\277hJ\313\275\337||?\322\211\234\275\243\267Z>8\371O>\'.\372>\032\312\203>GA\372>\032c@?NO\225>\203\225G\276T-\331\276V\314t>\005\343\355\276T\234\354<\n}\014?\000`\025\277\020\376\360\276e%\203\2761R\247\276\343\256\351<~\242d>\312}(\277\300\356-\277)m\356>~\224d\276h\315\326=\321:w>\244&3=\r\346\365\275_\300\022\276\023S_\276Um\260\276+\316\030\277J\342A?4q]\276\255A\n\276*\360\366= c$\277\374]\t\277\271\254L\276\323\305Y\277\363\204\221\276\233\244N\277\372\304\r>\3460\267\276\352`\007?\346\325l\277={\254\274w\311\n\277\0332\263\277s|\021\276&\341!\277u\213k?\224\240\212\277\013\337~@\272\237\032\300\245-\034\300\255Y\247\300\000G\230\276\377h\244?\222\370-?Uxd?\177\002\267\2777\221\340\276\324\340\002?\354\210\255\276\223L\207\276(Q\030?\267O\\\300\335\022Y\275\037y\265?D\222\377>\031\020\212\300\235OP<\033\206\306>;\350}>:=\343>\213&\321>\347\227e\276\365c@\277[\363F\277\211\210B\277\275\264\243\276X\202\006\276E\217\376>\321F\323\275\";\240>#\263\030\277\321q\346\276\307:f?u\000\036\276\231?n>\004{\244> \343|>]\356\301=\277*\034\276\205\312\320>pI\335\275\203\267\034\275\033\034\033\277`\376\032\277z\263\363\276.\355\r\276_Q\303\275\2631V>r$\017?\214Z\345>\246\322J\277[6\207?\340\353\363\273\334\242\257\277\357q(?\241\024\347\275\331$\314\276\024\353\332\275\260|\025\277\271\307\260\277F\343\343\2764M\272\277\314s\005\277zN\221\276\243k\353>\034HO\276\240\305\216=\275\357K>E\003\241\276\030\365%>\357D?>WT&>\367\236F>$\023*\276\365K\241=Q\335\341\276\002Ms>\221\340\034\277\210\311\325\276?*\236>\370\237\274\277{0\213>\025\205\234\276\230\252{\274\371\373\031\276\220\317\354>a\206\223>\374\t\035?\367W\330>\223C\371\277\272\260#\276\223\365\202>#\210\010\276\230\311\237\276\352\245:>\206\325J?\014\210[\277}\324\223>\371V<>6\\1\2778\r9?\341\266\r\300\240\004\033?\250\326\013\276\324\305j\275\023\207\253;;L\'\277\373-\200\276\1772\002\300a\343\245\276\373\207\'?\337;\231?OWJ?J\001\201?\030w\001?\214\2351\277dM\022\276\031y\003?qm\014\277\250\343n?\033\265\304\276+S\374>\204\247\333=\367\3060\277g\305i>\325\225<\276\334\250B>\302v\027\275\024f\273>`\224\316>\337u\235\276\325\362#\274N\261\206>z4\016\276\366\325X>S\262\301<\257g\306=\201\310\262>XD\256>F0\013\276\237\325B<,\031.?\037\006\337\276\352\037H\276?]R?a)\360\276\220\017\356\276\230\253\264\275**@>\315\032%?X\277y=\377A\005>my5\277\230\223\000\277\342\034\t\277\217\3714\276t\377\364>)$W>8\334\002\276\005\260\300\276*\334\201\2778&6?\347\342\034?\335u\214>\347\030\207>\314@\037=\334\351\030>\207\256\026=\246=\331>f\211\006\2775>K>-\246Q\277\264\336\200\275\214~\225\277%\375\"\276h\226\016?\333\226%\277\316\353>?\315l\222\274\277\337\217?\031<\227\277R\234\343\276_d\302>#\274\205\277\314\363g>\222P\244\275\t\210\037?Y\375\215?\350/\263\277\2256\025>\265\316\314\276\257/\374<H&#\277\031\247\352>\177-\016?t\354\264\276\325\272\'<\260\356Q?\255!\016\276\320K\330\276\271x\263\274\032\247\000\277\205V\341<\243Y\357\273\006\2779\276\312A\277>\274!C\276\363\222g?\003B\013=\322\021\225\277\216\275\204?\243\330\236>\375p9:p\350&\276\245e\246>!\362)\277\222ay<p\000n\277\374:\274=\021\t\"?>\226e\275\224\r\016\276\245D\221\275\273\000\354>\036\337\264\276U\035\332<\355\315\340>\361\2012?-\356\330\274 \237\311>+\374\026\277f\275r\276eh[<\017\024\206\276\277#\021\277\203+G>\330\016\371\276\246\235\360>\"g\034\277\236\243\234>^\276\255\276F\313\336\276z\223\000\276q\304\034?N\202\207>[\'\221=B\340\262=\364\254\346>&9\355\273\263\367\202\277\276_x>PL\302\276\004r\023\277m\003\365=D$\211\274\365\254\013?{\232\276\276\226\005\276\276\037\371Z\277?\304\316>PY\001?\272F\036\277\310G\216>Lc\\\277C[\217>\334uz\275\223\354\254\276\027 \354>\355\204\232=B4\251=#N\n\276\304\023\007\275\307\277;?c*E\276\002\021\372\275G\200\'\275\304\256\206\275yA_\276\245\324,\275n4H\277\'66=\326\0254\275\345\377\266=\267\304{>\345\213)=\026*i?2/\035?\"!\224\276\257rK?\377\037G>\016\341w>w \311\274\371\203\007>\230\000\320\276\355\320:\276K~&\277!2\324\276\364\353\320>\024\350i=1\026L\277_i\265>\340\277>\276\226\221D\277\353\355\255\276\277\374V\275\372\260\207\276v\331\360\273\3402:>a\350\316\275k\351z=\206\037\307=qL\276>\nZ\206<O\317\025>\200;\276>`;\201=\273o\214\276\346-\333\276vX\355>(\\!\277\317\202\277< \025\261>\333\217\210>]\002\343=\224v\024\275\217\004A@\257\230\346\276H\254#?DBZ\277q\243$?\031\3517=\026\300\277\276{\251\213>\233\230\351=mMJ\277\002\000\200\277\027\0264?A\327\021\275\263\360)\277\206\r\305>\261\327L\276\222\341F\275o n\277\364\320]\2760\264^?\035\203\017>D\217\217>D\275\215>\205\370\034>\327\204\355\276;~\023\277\365;\377<\352.\374\274/\271\037\276,6\203\275z\031\002?\"\306\n\277\332PP\277\022\033\246\276\n\344;\2767U\377\275\311\362\361>\371$\270:\303\370J?\365.\353>\023\354\'?J\010C=\353\266\205?:\261\"\276\241\332\004\277\205\225\262>+tT\276\035\233G\276f\233\206\276\237U\037>\025\007Y>&<\330\2767K5>V\254\333>\226\r\007\277\254\234\316\276\335g\216>\340\212\231>\334\3312\277\371\234\206>wn\341=\325]~\275\233.\301\276\2171\305>K?\014\276\027\353$\277\276\276\273=\303\003]=\311fX?\214\222\352\276\002\272\317\276\360\220^?9cR\276Z\236\260<,\307B\276\266\255f\276Z\0025\277\310\327\033\276\036B\004?\207\303h\275\345\010\006?\243,E>W\013\307\276\217\007\325=\026\027G?\374d\276=\304\316\016?\215\321\333\275\317pf?\035+\313\277\346\177\237\276]\n%\277\351\364&\275\004\211\035\277C\216\235=F\230v\276O\247\261>B\005\245\276\320\210\222\271\251\247\252>y\324\004?9o\374>\365\333\263\276\372\r\201>\371\307s?vNo\276\254\341\204\276\322 \227\276\256\266\332?\257T\023>\031S\373=Ix\250>q\203\345\276\253\031\"\277\324\004\212\277\2150\037?\316\363\213=!\306\207\276q\327\301>(\251\226\276\037\004\\?\371\232\005\277\326<\013\277\215\t\214?\\\247)\276ZO\003?\357\253\033\277\363\271\002>8\260\003\277\233\336\206\276\200c\265>\277\007X>P\2041\277\200\214\026?\204`e\277s\037\205\276|\305S\276\245\214.=!\033\304>\263%\016\273\310a\231>\n5%<Ws3?AT\204>\361;\251=k\3144?\235\335\224=\361\205\246\274}\327P>\021m\275>\034\276\262\276\330\024\256\276\\\372<\277\205!,\277\342\200\n?\364\001L\275\3626\243\276\277\022.;C^\002?\313\3541\277%\010H\2777\3553\276\337+\265?N[w\2768\023I?[c\333>r\341\314>M,\256>*Yb>\326\t9>\303\001\034\276\234\331\202\276\251\276\232>\356\016+\277\363\327\220?,\233\020\277\277\315\225\276\244\326\034\276D\001\374\276:\003\332<\034\320`\277\312\343S>E$\200=E\013\332>\002\016\230<\025\364\026>I\213\274>\251\361\307\276\303c\221>\262_g\275\276J \277\300\r\001\276H\\\273\275\254\302s>\314\357\376\276\211\tN\276yv\242\2764\013N\2771\221\315\275#G\344\275\344Q\255\276\006 R\276\022w\326=T\207\367=\010\001\212=\353\236\267>\246[4\277\346\370a\276Qw\340>9p\267\276bq\243\276mb\034>b\007p\277\274\205\021?\322rG\277P&\000>%\306\262\2763\017(\276\331J,\277=_k\276b\233\225\275\266N4>$\022\223\276\010\222t>a\231\264\276\017\363\216\277\035\202\315\275;\225\351\275&\'\315\276\375K\206>\207\200\230\276b\213\004\277I\254U?\226\305\353>a\0302\275\254\312\272=U\331L>_\223\257\276\353\256F>G\323h\276\006H/>\2747\222=\035\207x=/\340\026\276\370\206\025>J\316\233\276z#]>`yH=(\315+\276\007?\373>\036\230\375\276k\333^?\006\341t>\334\375\311\274\304\331z\276\017\2619\276\336\356\371\276<\226\264\276\324\334\320?\t q>\310;\352\277r*f?\337\361&>\355\024\343\276W\301\000>L\235\326\276\262\227\335>/\014\305\276ENS\276\300\312\205?\177,\022?\274\026\270>\266#\360\276o\301B\277}q\202\276\204\304\360\276C\320,>x\006\234>\231\201V>\022\351U\276\334\276\275=\335\2723\277~\336i\275*\221\\<\211\235\244\276\272^\224\275b\214\350\276\016\277\334\275\317L\n\300\023\227V\276J~\320>\027\305\247\276z\240\204\275\000\n\315\275\320\272!\276\207\n\320<j\321\034?\264\014+<\261\035Q\276)\245\246\2768\312\306>\005\307\256\276\"T\032=\207oY?K-\224\276\2769d>~\314\221>\307c^\276A\215\245>\003r\241>\233\253-\2772\203\202\276\3613+>\360\237\302\275\337\265\177\275\304\306\024>\302\361\373\276B\274\217=\002\244\221\276^M\201\275\002\320h<\276/o\273$\334\223\275A\364\030\276\374\030B?R3\332>#9\315\276EMR?\363\007\313\275\235\347\365=\353\357]\275\366\302A\275\313B\363\276\031\277\363\274\310\301R\277\224d\320\276\246\013`?\326\356\202>\220\324\360\276.mS>j\2666=A\r\214\276\321\006\336\276\'qj<\257\225\000>\204\216g=\211\252)?x\"\275\276\014\345\020\276\274A\244\276\004\2774?7\016\311>\371\350\315\276w\223\365>:\342H\276\2310\031\275\277\305\376=\274f\352\275K-\017\277zh\277\275?\203@\277\202\232Z\275\000&\002\277t\356\376>\363\342\000>\354\0241\275\233\032\336;\344\322\\\275b\313\321?\027S\346>F\3069?\206\024\024\277\354&\267\277\223^Z>\230\314h\276\323\331\202>\014\214\225\276:K\355\275y\005\035@\377\024\245\277\206\333(?(\324\312\276$\373\233\276\277\341.?\016\327\257>\224\354e=f62\276\347L\234>\216\255\r?\214Qp\276d\370B\275>z\341>\025\014\000>\215\350C?\005\001\306>\r\014\346\276\'\2551\276\247n\032\277ui\217\276\235\340\207?\2148<?\222\264\031?\006\350\352\276\222\334 \276\327-^>z\331\370\276\310`\013?2\257[?/\300G\276\202{\224\276vt\250>/\035\353\2760\210\303>\233/i?ah\322\274$J,\277o\356D\276o;&>\312\240&?\256\246\266>\253\262\376\275\3325E\275\226\t\255=\274db=\373n\200>\013\220\255\275\343\025q\276\340:v\274\266%\244>\026\027\330>\265\361g>\0023]?@\312\351\274\360\374\377\276_\270\306=DO\023?/\305\253\277\002\357\036>\246\016\327\276\315<\204\276\326\340:>\343\201\004\276\353\366\317>\027\240%=\204\262\006?B\251\236\277)\214\250\277Y\342\270<]\204\'?\000\375\233>\327\007\340>\234\363i>>\327\211\274\211\321\252\276w\221\006\277\345\354\300>o\322,?\000\221&\277c\032\330\276\220\320\303\276\350u\234>\240\350\250\277\275,\t\277\377\026\241>\300\244\026\276L\310v\275\366\272\207\276#\227Z\275\217`K\277\313\216\220\276\266hg?\315\334I\276\361+\255<\240\233\257\275\327\342\233>\363CW\273\244\365\213\276\335I\221>\204\005\003?\017U\311>\344j\034\277\005\257e\277\002A~\277}\256L\274uKH\277K\202L?d\301?\276l\262Q\2775\257\255=t\306\220\276\242e\007\277\366\212*>RM4\277>\301\274>C\272\271\276\360Z@\276M\013\034\277K\327\275>@\203\253\277k\237\337<\303\\\251\277.\306<\276\202\026\000\277u=m>(\307\037>\267\200\235?\016l\374\274k\325a\276A\341\225?\003&\n=\000P0\277\237\257-\277p\342j\277\374\230\021;uA\213\276}\222\014\276\274b+>\364\033\240>\253\245\016\275\'\360u\277j\216\037?_\366\314=S\206\033\277\362\257\263=\266(\367\276\223M\300\274\360vd>\031.0\276\r\251\237>\n\177\327\275Lq\366\276\025\004\321=RM\330\275\030\302\000\277\330Z\245=\237_Y>)\226\364>\006z\217\277S\210\270<\337\347B>{\002\\\276\333nC>5\000j>\002\243r>;5`\276\010[\'\275\322*\n?6\023\361\276T\231Y?Q\226\034?s\366\325>\215\330|>\223&3\275\212\022\375>\341U\241=\032Z\326\276d\302\317\276\341\022#\276Ms8?M\336\261>\001\275&\276b^[?\233\037\221\277A)\251>`x\240>\300\217h=\3173k\276J\234\352>\026\013\027\277\233tJ\277\353\2123?emm?\315\363\037\277\026\204\035?\226\377\205\277\255$\013\277\204\377\202>\205\004\305=~\355\300\276\220\332\201\275\003\372U\277T|)\273\005ID\276$\311\324\276q1\017\276\275\271\t\277\375w\024\277\0101\217?\351.\373\276w\301\260\277\021\377z>\030\243\255\276\343\257\353\276\267~\n\277\226i \300~\265\r\277\030\251y?\033L\326=\272\236F=\252O\341>\316\217\250?\350&\230=\201\272;=`\031\317\276\276\257V>\227}\336\276\310\321\200\275g\361\272>m\335\237?\373\351\225=\033\371\371<\332?\025?`q\032?[&\t\276\357\345\354>5\232\222>\332\243T\276\365wQ>\266\350\361>\206v\273\276-HZ?R\177!?\203\261Z\276\375\272N\277\356\0169\276Hnj\275\367\213\234?/\355\025?"
      }
    }
  }
}
node {
  name: "sequential_1/dense_3/MatMul/ReadVariableOp"
  op: "Identity"
  input: "sequential_1/dense_3/MatMul/ReadVariableOp/resource"
  attr {
    key: "T"
    value {
      type: DT_FLOAT
    }
  }
}
node {
  name: "sequential_1/dense_3/MatMul"
  op: "MatMul"
  input: "sequential_1/dense_2/Relu"
  input: "sequential_1/dense_3/MatMul/ReadVariableOp"
  attr {
    key: "T"
    value {
      type: DT_FLOAT
    }
  }
  attr {
    key: "transpose_a"
    value {
      b: false
    }
  }
  attr {
    key: "transpose_b"
    value {
      b: false
    }
  }
}
node {
  name: "sequential_1/dense_3/BiasAdd/ReadVariableOp/resource"
  op: "Const"
  attr {
    key: "dtype"
    value {
      type: DT_FLOAT
    }
  }
  attr {
    key: "value"
    value {
      tensor {
        dtype: DT_FLOAT
        tensor_shape {
          dim {
            size: 26
          }
        }
        tensor_content: "\344\016:\277\246\275H?\005\216)?Eo#?\251V!?\245k\352>\022\253\024\277\225\231l\277/\377\273?\316\362\251?\023ax\276\020\2453?\375\327G\277\346\350\236>\016\375\304?;\005\335=\027w9?\375\206\243=!\341\305?\317m\017\277\317\177\000\275\360\2010\276\337{a\276#0 \277@r\343>\235n\304>"
      }
    }
  }
}
node {
  name: "sequential_1/dense_3/BiasAdd/ReadVariableOp"
  op: "Identity"
  input: "sequential_1/dense_3/BiasAdd/ReadVariableOp/resource"
  attr {
    key: "T"
    value {
      type: DT_FLOAT
    }
  }
}
node {
  name: "sequential_1/dense_3/BiasAdd"
  op: "BiasAdd"
  input: "sequential_1/dense_3/MatMul"
  input: "sequential_1/dense_3/BiasAdd/ReadVariableOp"
  attr {
    key: "T"
    value {
      type: DT_FLOAT
    }
  }
  attr {
    key: "data_format"
    value {
      s: "NHWC"
    }
  }
}
node {
  name: "sequential_1/dense_3/Relu"
  op: "Relu"
  input: "sequential_1/dense_3/BiasAdd"
  attr {
    key: "T"
    value {
      type: DT_FLOAT
    }
  }
}
node {
  name: "sequential_1/dropout_1/Identity"
  op: "Identity"
  input: "sequential_1/dense_3/Relu"
  attr {
    key: "T"
    value {
      type: DT_FLOAT
    }
  }
}
node {
  name: "sequential_1/FinalLayer/MatMul/ReadVariableOp/resource"
  op: "Const"
  attr {
    key: "dtype"
    value {
      type: DT_FLOAT
    }
  }
  attr {
    key: "value"
    value {
      tensor {
        dtype: DT_FLOAT
        tensor_shape {
          dim {
            size: 26
          }
          dim {
            size: 5
          }
        }
        tensor_content: "n5-\276?\346-\275\256d\037\275\177\354\005>l\002\t>ru\222\276\032_\212>\024\327\211>khh>\323\363H\276\3772\262<bwD>CR\240>\257<M><\271\225>|\374\330\275\005\205\305>+\255\306>4\375\263>F\026\225\274\323G\236\276\277\243\242\276\036\324\240\276\372Q\014\277I\026\021\277\257\375i>u\315\371\275\232\004\360\274\351<\205=\343\245_>\360\0010>\177k(\275\177\004\202\275\020]\225\275z\270+>\021R\334=\3433(\276\321\301\010\276U\224\300=05\316=\304\265V>9Q_>\262\201\277\274\372\002\300=k\365==\222&L>Z0H>H\204l\275;\242\222\274\241\223\035>{\317\266>3\nW>\345\247(>\252}\346>G\2635>\367\t7>\365\037H>\237Q\232<\034\003F<,\302f\274\332\215P>\034J\205\274\231w\037\2758\261[>&\016\326=h\223:=\365#b=(N\325=fP\351=\367\277\227>\004\347\251>\364\357\216>\310)\241>p\254\217\274#`\220>\364\332\003\276\342\366\211\275o<\r\276\n4\351\274\367\276\276\276\260z\237\275I\372B\276\010W\272=\262\007\304=\230\221\025>\344\006\222\275R\312\240>\322\363\243>nC\225>\300\033N\276\006\032\031\276_UX>\324\274\300>\023\352\312>\203\205#<\010X\033\274\277\n*\276\2265\352==\007\370=\"/\021>\304\274\272\275\014J\233\275\027\224\255\276\263E\270\276\327#\031\276o\231\231<\352\340\320>\247\332\323>J<o>\022\350\333=,<\346=\303\205)=L\3265>9h?>G\357\333\275\225D\331=\310\321\251=\306q#\276\256\375[=\013\372\224=\337\206u>\304\207\316\274\234E.=\240\234]\274\336\203\355\274\235\315\220\276W\202+\276\306\234\254\273\3008\027\275\252\204\025:"
      }
    }
  }
}
node {
  name: "sequential_1/FinalLayer/MatMul/ReadVariableOp"
  op: "Identity"
  input: "sequential_1/FinalLayer/MatMul/ReadVariableOp/resource"
  attr {
    key: "T"
    value {
      type: DT_FLOAT
    }
  }
}
node {
  name: "sequential_1/FinalLayer/MatMul"
  op: "MatMul"
  input: "sequential_1/dropout_1/Identity"
  input: "sequential_1/FinalLayer/MatMul/ReadVariableOp"
  attr {
    key: "T"
    value {
      type: DT_FLOAT
    }
  }
  attr {
    key: "transpose_a"
    value {
      b: false
    }
  }
  attr {
    key: "transpose_b"
    value {
      b: false
    }
  }
}
node {
  name: "sequential_1/FinalLayer/BiasAdd/ReadVariableOp/resource"
  op: "Const"
  attr {
    key: "dtype"
    value {
      type: DT_FLOAT
    }
  }
  attr {
    key: "value"
    value {
      tensor {
        dtype: DT_FLOAT
        tensor_shape {
          dim {
            size: 5
          }
        }
        tensor_content: "\245\304\204=\215yI\276\362u\231\275Z\366\260;i\002\265>"
      }
    }
  }
}
node {
  name: "sequential_1/FinalLayer/BiasAdd/ReadVariableOp"
  op: "Identity"
  input: "sequential_1/FinalLayer/BiasAdd/ReadVariableOp/resource"
  attr {
    key: "T"
    value {
      type: DT_FLOAT
    }
  }
}
node {
  name: "sequential_1/FinalLayer/BiasAdd"
  op: "BiasAdd"
  input: "sequential_1/FinalLayer/MatMul"
  input: "sequential_1/FinalLayer/BiasAdd/ReadVariableOp"
  attr {
    key: "T"
    value {
      type: DT_FLOAT
    }
  }
  attr {
    key: "data_format"
    value {
      s: "NHWC"
    }
  }
}
node {
  name: "sequential_1/FinalLayer/Softmax"
  op: "Softmax"
  input: "sequential_1/FinalLayer/BiasAdd"
  attr {
    key: "T"
    value {
      type: DT_FLOAT
    }
  }
}
node {
  name: "Identity"
  op: "Identity"
  input: "sequential_1/FinalLayer/Softmax"
  input: "^sequential_1/FinalLayer/BiasAdd/ReadVariableOp"
  input: "^sequential_1/FinalLayer/MatMul/ReadVariableOp"
  input: "^sequential_1/FirstLayer/BiasAdd/ReadVariableOp"
  input: "^sequential_1/FirstLayer/MatMul/ReadVariableOp"
  input: "^sequential_1/dense_2/BiasAdd/ReadVariableOp"
  input: "^sequential_1/dense_2/MatMul/ReadVariableOp"
  input: "^sequential_1/dense_3/BiasAdd/ReadVariableOp"
  input: "^sequential_1/dense_3/MatMul/ReadVariableOp"
  attr {
    key: "T"
    value {
      type: DT_FLOAT
    }
  }
}
versions {
  producer: 561
}
