node {
  name: "FirstLayer_input"
  op: "Placeholder"
  attr {
    key: "dtype"
    value {
      type: DT_FLOAT
    }
  }
  attr {
    key: "shape"
    value {
      shape {
        dim {
          size: -1
        }
        dim {
          size: 28
        }
      }
    }
  }
}
node {
  name: "sequential_1/FirstLayer/MatMul/ReadVariableOp/resource"
  op: "Const"
  attr {
    key: "dtype"
    value {
      type: DT_FLOAT
    }
  }
  attr {
    key: "value"
    value {
      tensor {
        dtype: DT_FLOAT
        tensor_shape {
          dim {
            size: 28
          }
          dim {
            size: 28
          }
        }
        tensor_content: "\027\273\202<z\031.\276\303\211;>\257u\343>3nK\276\t\336\006>\220\267\243\276\303\340\206\275\2360f\276\232\243\017\2763c\236>\033\334\023>\236.\222\276\te\303=\032\371\000>\224\014\242=\243\255\201>jC3=\360\013|\275,:\211=}4\t\276\321>\030\276\203\304\260=\270\321\372=\241j\312\275wM\361=\t\243;>.\001\021>{n\027\274\037\004G>>z\237<(\007:>6~\265>H\364Y\276\226j\202>b\250\373\274.\335\005\276\01731>O%o>\311Xi>\355X\306=p\177x\276V\226\006>\320n\276>\321\302\n\276B\316\343<\004\221\036\275\266\256\227>\250\326\255>q\365\032\275\024\261 >\247_\034\276\242)\221\275rtI>\\#\245=m\225\237:\200\274\227>7\237\373=\3421\\=,\276\036<\355@\351\274\363E\002>\305\312\371<\270&\302=\200\233\253=\250\316$\276>X(:[G\354\275\007\207h>\337\223\241\276j\351M\276\001\274\350\273U\375\004\276>\223\313\276\271\300\235\276\330\263\312\275Y(\253\275ZK\215>TP)\276\211E\314\275\004\r>>\303\205\307\276o\362\207\276\205\356\305\275|\375\352\276+\306a=\345_\257>*\003.>\304\336\010\275\220\241\233\276\242.\272\275\241Xo\275\323\005\271\275\007B\332\2743\007\211>Y\264\377<X4\363>\322wk\276\004\361l\276\'\353\347<\233o\314=\212\327\257\275\363\337\225=\306\327\026\276o\n\207\275\216A\030>\242\311q=mz\346=\241\322_\2763\246\302=Q\023Y\275*\016\246=z\016H\276\332(I\276\2403Y=\231\237/\274\366\265\217\276\351\256\246\276h\244=\275\202@\r=e\372\353=\265g\037=\302\267\223\276\234*^\276r<_\2764\241\253=\345\204\t>J:\241=\234\314\377\275\3133\331=V\263\337\276<\265\316<\357\373%>_S\356=\303\346\006\275\304\212\202>#\302|\275\221\250\251\276\257\232\373\276\343vn>\n\363\020>\r\026\021\277\257\362\357==\267\245\276\277\340\304\276\312\2269\276\234\004\267\273\353\325H\275!\006~>\"\337\204\276o\0246\277\227\336S?\367\177\255=\351\\\370\276&\2156\276\325Y\210=\024\365\244\275cS\272\274$N\007\277\206|\324=(\3317\275\276m\336\275\252y\020\277\235\364\000\275\320\036\275\276[\311.=\"5\010\276^\034\r\276-b\337<\tMm\274\346\0303\276*\361*=\256,\202\276\253\027\">\021\343\211\276O\304\301\274\')w>_\215\031<I@\022\275?t\017>\353m\327\2752d#\276\314w\342=\002\'1\275\353yO\275?\000\264\275\021\271(>t\320,>\231\372\207\275\222\265$\275[\177_=\350\307\364\274{aO>\373G#<\260\033\036\275\035h`\275Ye\020\276Q\363\313\275\257\360\337=\300\264\214\2767v\310\276\274\022\265\276P\036\013<\340\006\272>\"\022\253>\355?A\276\265\273\311\275\347\351(>\325\375\351=\341\225\270\276\224\337\231\276\231D\323\275&Y\344=\371\304\254\276BdK\2763a\341\275\025j\274=\372\243\201\275\376W\340\276\3628y=_\267\246=\272\2235\2766\277\227\2761\326\364<\'\245\210\2765\2122>q\307\017\277\022\317P=Q\314\352>\354\351a\276_\245\315\276# \004\277!d\031?S\330\211=:f\247>n\206\202\276Q\022\351\276\271v->\352\371\361>\245\002\324\274s\t\262\276L\331\001\277\325\317Q>\253\364^>\231\241\366\276y7\225=\242\214\260>\025)\204>\341f\021\274\315\010\233\276\313\301\237>\014\004\316\275\247\376M>8\025\370\276\345\001\245\276\325\362 <\255\300N\277Th\240=\363\251R>\225\247\035?\337|\r\276\366\304\350\275[\313\325=\263\341\373=\233N\002?Z\\\017\276u\3221\276vYS>\032\315\020?-\207\002?\316\211\037>\303\273\201\277\2452\177>j\204\317\276,O\n\277\nU&\276N\305\272=\213]\321>c\230\334\276\333q\263>v\007\203\274\341\315\266>\024\220\367\276$\014_\2768\\\243>\237t\">oMU\274\001\017^\276\351!\216>{\3037>\001P\323>\000\344Z\275\264Q\345=1\233\004\2764\224\246\275H\273\361\275{\364h>!9\225\276~\207\021\276\016\025Q>\270\366\017>\216\026\251=\304\007G\275\377K\000>\014\360\331=z\364`>\344/\032\275O\255[\276\330\240\n<;\256q>d\330\207\275\270\310v>\002\321\007=\350`\211>\241h\335\275>\030B=\317g+>\022s\034>\321Q;=A\2570<n/)>y\313\241=\217\036~>\214\273j<\350\323\224\276/\222\225>\3635G\275\353\024\324={\375\230>A\031X=\000\220\r\276\017\242Q\276\263J@\275)i\230>\311\370\r>\270\016\236=!2;=\334\r5>\203.\331=x0\262=\222\362\306=\250i\336\275\331\266\\\276\323B!\275fv%\27433\004\276\337J\263>K\303\324=\222K\335=\001\223%\272\374\374\263=H5\251:r\246\006\276W\033\267>\300\024\263\274\305\221j>C9\255>\221\234J\276\350\231\235;\371Y\341\276o\271\217=pz\023=\035\014\024>Mc\221>m\210);\354\020d=\300\003\260;\200+r>\363\177\256\275\013d\221>>\360*\276(\254b>(\3520\275\221\212\305>9*\347\275\2735\'\276\032\361\210\273m\272.\276\220\304\316\274\021\270\231=\377X>>O\314f\275\230\363\267=\321Ce<\270\330\307<\231e\223=J\202a\276F\306\342=\025\006\327<\200\372\254\275\233\352\265>\364\307\014\274\232Z.>\2454)\275\266\001\307\275\177`\207>\372\312d\274\000`b>v\\\n\277\203\014\201=}\225\273\274\247\016\301\276\'\\\236\276\351.6=\277G\001\276\004%\213>\362\265\263=\225\330\003\276\343\213\r\276\035\314\204\276\317\033\025=\205m\013=\342o\002\276\240\023\333\275\327\253\037\276\301y*=l~\314>4\3606>o\256$>\003\247\031>\330\342\316<Y<\333<\353\020\277=\364?<\276\177\010->\346<\246<|\242\312=\342pV<]\215\221<(-\\<\210m\206\275M~\036=*i\354\273\030\n/>\332\273D=>\266\277=9]\253=\346\236J=\370\r\213\275b\3168\276j\245\026<\"\273Y=\330\250\332=*\276\223\275h\345\350=\033\341\245=\n\251\233= l4=\205\303\036@\322\331Y\300X\276\021@\024L,\300\310\021d\300\205M]@\275\231Q@\t\2174@\'\257Q\277`cm\300sO\031\300\256\201\344?mr\036@n\206\200\300cIH\300\037\216\022@;54@\303\273w?\254>N\300\371_j\300\277\277\315?<\212\347\277:\035@\300\022\025X\300\213\255H\300E\340A@epb\300\035T@@\346oJ<g\312\356<\233,\313\274D0\016\275\342M\307<\317\346\334<\242\001\372=\366\251\\<6\265c=m\2218\274]]\'\275N\312@\274~\303v<\222qZ\275\230`\352\274\326=\212<\362K\177\274+\245x=%\204\020\275\316\005\364<\220p\202\274X<\314\275\305\320\235=Ef\031=B\237\260<\203\341x\272\340ty<\214T\205\275\347=\027=1\3252\276\375c\207\275\270\257\375=\211\236\020=m\336\214<5/+>sK\013\277Vs\356>\336]\353\276\213\362\335;<\036\030\273H\'\370\275\244\032{\275Fo\003>\220)\033>\325(\305=\262\234\277\275\261gx>C\361\306\277c8p\276\243b\252>-\311\017>\022\261B\276\255\325\252\274n\237\232\276B\352/>\350ai=\r\310\325\274\236\331\262;\007B\035>\307\233\323\276\245v\271\276\232g\025>\343\nh=s\252\375=\354@H=\347\251o>\341?\200\276\007\220\t;\027\344W=0u\223\276e\253\216>\2754u>\215\327\227\276o[M\276\367\352\"\276\335\302\257\276\032\333\267\276\220\376`=k\020u>\025\305\340\275x\357\253\276\2349\301\2759\323\024\276\307\324\213\275\203\375\236\274\324aR<\224\202\010>_\302;\276\010\274\030=a\334.=H\235\031\275\2371\037\276\036i\332<\377|!\276\232\363a>\336:\330>\267|\024\275\275Hq>\001a\324\276\325\001\336=\037l0\275\207\342>\276T(\357\273\340.\317\274\007}\020>fl]>\271h\017\275\341`\316\275\355p\221\276\360\251}>\201&\r>\354OE\275w\310/\276\251\377\224\275K\202\325>\300\242\034>\252L=\275\312\355\223<?<4\276\312$\315>\343-D\276\025\323\014\274\204\204\370=\031/\007\277\362`\254\276\365\t\231>f\251\266=.\334G\276\246\234\332\276\332\364\203\276\237^\372\275\334\246\270\275\234\200\217>\265\365\271>\260\371\010\2769\005=\276\017\007\266>\262,\316\276\222\216+\276M\210?\276\222\372\344\276\266+\245=\235\273[\275Y\031\337\275\260\370\020\276\026\254q\276Q\310\270;\215\200\353==Y,>\366\347b>\271\030\357\275\373\357M\275-\212\242>\023\226\202\276L\362]>x\225\\>\345\003\354\275)\325\013>\014\346\372<Q\'\034\275\005\350\230\275\206\343\212\276\333\310e>\023\323n\274\013*u>}\313\031>\023\272\r\275\201\261]>\206JX\276<e\347\275\227:m\276I !;6p\202\276D\336|>\246n\346<\004?\274= }\267\276\314\343\035>\2716X\276\270\300\305>C,\031\276\206V\270\276G\211+>Tvq\274F\360\206\276\035|\246>u\\2>\223\234G=U\317\252\275\017w+\276\277\215&=\355\254\345\275{H\246\276(\350{\276\356y\253\275f\357\207<q\336\357\275\312\342u=\371\352\252\276\307\247\325=i\245\001<\314\261w\276\251T\001\277\"\267\030>f\336\224>kA\253\276\334\307I=+\035B=}\216\330\273\311\036\020\274\342\375\036=\027\317j\276&M\305\276\031\216\247\276\323b^\276\341\313\227\276\000\362B>\267\026\013\275k_\006\27654k\276\310\264\275=\314\335E\276\303\006&\2740e\315\276f\010\226\273\322w\">\035\023V=p\217_>\241\022\250\276#\276\014>\342..\275\320\020\276\276y\260\\\275\307f\275=\274\271\210\275\244K\005=\007L\244\276\215\273\221>f\3667=\302\030\027=u\001J\276\001\362\241=4Lf=\234\270\316\273\301\212\017>u\r\256\275\003&{;\217\000\271\275P3%>M\263\201>`\"5\274\231v\200>A\314u\276\357\246#\276f\322\010\275\020\274 \276\361\253w>x\332<=\241\214\033>\016\255S<\020\354\350;\353f\236\275T,\025\276\363\315\r\276\243pu>L\356u>\252b\327\274\361\240\206\276\312G\266<g\214\234>\342\234v\276yr\217=:\222\206=\365z\257\275^\001\334<\310\375\271<\242\324\264\276=u\016=\236\3727>\021*\377=\3251\300\2749\336\314\276\013$\272\275\352\2022={\237 >\245\027/>\021\363>>X\031\214\274\367\007\262<d\357\256>\247\254\017=\315\364\000\276\226\023J=@\353\257<\021\236\277\27525\242\275\021V\307\275L\216\263=\246\204\234\2751\004\244=n\210\202\276\274z\357\275T\327U=\321j\262\275\014\247\205>\220\252\341\275\035\014\025>\355\\\247>"
      }
    }
  }
}
node {
  name: "sequential_1/FirstLayer/MatMul/ReadVariableOp"
  op: "Identity"
  input: "sequential_1/FirstLayer/MatMul/ReadVariableOp/resource"
  attr {
    key: "T"
    value {
      type: DT_FLOAT
    }
  }
}
node {
  name: "sequential_1/FirstLayer/MatMul"
  op: "MatMul"
  input: "FirstLayer_input"
  input: "sequential_1/FirstLayer/MatMul/ReadVariableOp"
  attr {
    key: "T"
    value {
      type: DT_FLOAT
    }
  }
  attr {
    key: "transpose_a"
    value {
      b: false
    }
  }
  attr {
    key: "transpose_b"
    value {
      b: false
    }
  }
}
node {
  name: "sequential_1/FirstLayer/BiasAdd/ReadVariableOp/resource"
  op: "Const"
  attr {
    key: "dtype"
    value {
      type: DT_FLOAT
    }
  }
  attr {
    key: "value"
    value {
      tensor {
        dtype: DT_FLOAT
        tensor_shape {
          dim {
            size: 28
          }
        }
        tensor_content: "}s\252<\353\274^=2\331q=W\343\276\274\231E>=\267\025\243=\214z\214>\016\007\027>\031\2735=\2305$=\003\311e\275\224\244\024>n\026\210>\223d\032=7\246]=\311\020\251>8\255\324=\344\231\004>\314\3624=\236\371^\274s\3034>\000\310~\275\2500J=bG5\275\202\272A\275\367L\200>\327\204\t9AR\022>"
      }
    }
  }
}
node {
  name: "sequential_1/FirstLayer/BiasAdd/ReadVariableOp"
  op: "Identity"
  input: "sequential_1/FirstLayer/BiasAdd/ReadVariableOp/resource"
  attr {
    key: "T"
    value {
      type: DT_FLOAT
    }
  }
}
node {
  name: "sequential_1/FirstLayer/BiasAdd"
  op: "BiasAdd"
  input: "sequential_1/FirstLayer/MatMul"
  input: "sequential_1/FirstLayer/BiasAdd/ReadVariableOp"
  attr {
    key: "T"
    value {
      type: DT_FLOAT
    }
  }
  attr {
    key: "data_format"
    value {
      s: "NHWC"
    }
  }
}
node {
  name: "sequential_1/FirstLayer/Relu"
  op: "Relu"
  input: "sequential_1/FirstLayer/BiasAdd"
  attr {
    key: "T"
    value {
      type: DT_FLOAT
    }
  }
}
node {
  name: "sequential_1/dense_2/MatMul/ReadVariableOp/resource"
  op: "Const"
  attr {
    key: "dtype"
    value {
      type: DT_FLOAT
    }
  }
  attr {
    key: "value"
    value {
      tensor {
        dtype: DT_FLOAT
        tensor_shape {
          dim {
            size: 28
          }
          dim {
            size: 52
          }
        }
        tensor_content: "l\241\341\274.\341\r\276Y\027\032\276\324p\266\276\225y\224>\346\030\353=\364\347\003>Ah\252=2?\032\276\216\036E>\021\346\022>\317\n\205\276\030\375\220\276\225\226\001\2770\271\206\276\307s\351\275\317\266k>\177\276\217=Sh\035?R\347J\276v.1>\325\232\227\275\006\334\212>\240\264\203>\325\261\377=s}v\276\276\\\372=\250\023\263>Tr\346<\274m\207\276\271\337\020?\263F\313=\307\032\377>$\274\214\275\357\336\251=z!\340\275]\335&>Qk\025\277\264\327\033\277\264m\245>Db\212>O\313%\276\003\243\243\276w\0364>\246&]>\277WP>z\362J>;\325\372=K4\340=\263gQ\275\241\306F\276n\360!\274 \305\246\275\341G\201<axg>\321\304\021\276\027\227\374=\2066\235<\207O\225\276\264\221}\274\027\367\253>\177\205D>\256\230\t>\245\001\323\275\301\001K=\361pm>PG\263=\244\263\234\275\233 D\276\304\355\006\272g\261\221\276+\241\335\275@e\234>h\000\251\276;\220\265>\314YW\276\030\254l\276\010\324\205>\270\013~>\037g%=$(\277>\344\303\341\276\025\3232\276\216\330D\276\233&\013\276\253\023\202>H\302\022>\327F\272=Z}N\275U\251\203>\256\331P>m\214\250\276\236/\022>\323\t\270\274\002n\200<\037m\244>\324\356\327\272Q\317g\276M\213\207\273\220\262\246\276\213i\262\274\374\017\216=\262\223\030>)\253.<\252\215T\276l]v\275\265\357_\275\357\004\022\273\343]\000?\\\216\317\276j\306\024>]3s\276\245&\225\275\373\253\215\276m\367|>\037\310\322\276\302=A\275[w\030>A\257\005<\346\204\223\276\344l\363=\361\337\267\2769\t\231>\326\345\257=\007ZL\276\337H\002\276U\035\377\273h\354X\276)lR=\206\242\221\276m\351\030<\377\026\311\274\262\216\202\276M\243\377\275\037k\334\276\363\362c>\177\264\000=|\355\302\275\251\020}\275\0254i<\306\306\235\276\367\243\250\276=Dr\276<S\363=\007\023z\275\227W5>!t\230=\370\264\377\274\336m\230=\355\366\254\2747*=\276\371\"\316<&\371r=\377?\325\276\013\346\363=\377\263\">\177\272\017\276\275J\001>\006\256w>\275bf\276\221\232\213=\201&e<\224F\341<U\035M\275\357\"\022\276=6|\276k&\034\276\241B;\275-e]\276H\306\366=\354\365\000>\r\362z=_\022\214\275\367;\221\275^\363\016>\267&\241={\t2>\270\334I\276\267\216@\276\333?J\276\372\2343>\313\254\337\274V\277(=\210\025\221\276*\215K>\'#\032>\'\345~\276Z\270\234\276\036\226O>\025\343N\276r\005\211\276\227vD\275*B\227\276\220\021\305>\325\306r\276\221\356\375\275~\223\034\276j\362\231\275a\217O<4\3003\276lJ\220\276\227\031\361\275\313\211\t\276\372\223\230\276\016\005L>\306\360\'\275\232C\332\275>\n\200\275\023\353\233\275\370z\316\276&?3>b\237h\275\222^\n\276^\202W\276c\243j>4\301x\276P\004N>\r6\211>1F\352\275\004C\223\276w@\227>\212A\211\276\303\t\022>Pgu\276\256\252{>\231\360F>\324\204\220>nc\226\2753S8=o\206\235>=\206\203\275.r\363<I\037\255\275\2641\220\275\331u\243>\313\213J>}F[>\360\220:\276\037\332\361=\377X\321\275\342Q4\276Vv\244>\225\310\236\275+\310\027>\030\236\202\275\306d\247=q\006C>p\316\226=d\3335\276P54>\361E\256>\200\301\203>S\3737\276\345^\211\276p^|\276,\350r=&\213T>\224\210\276<t\222\365=.PL\275h\356a\276\227\355\310\275\177\252\017>m\215,\274\\U\000?\366[D>\235,\307<\034\305/\276\360\224\365\275\375-\177<I\023e\276!\201\366\2759\244\244=\357\203\263\276\000o\263=\274\311\357\275\000q!>\245\366U\276\350w\023>\004R\341\2765\364:\276\313\\\246\275XK\233>\2501b=\204hT\276\322\013Z\276\342\025\034\276\335!\022;`\306j\276\000\2151>\261\\\030\2741.\007\275\270\364\031=\033\3215\276\212\340\314\276\377\251K\276\362\202W>\'^\r\276\300_\204=\031\226\207\275\313\216\215\276\375\\\341\276\313\220\207\275\221q\001>!\275\020\277\301\'\255>%l\370=\236\007X>\340\250\001>{.Q>\034IO\276\340}\240\275\301\316\224\276\"\257\021\274\035\221\032\276\245\213\016=\273\275\247=w\362?\275K\317f>\231P\224>\360\220\024\274\262\265\274\276\373\0241\275\031\375X>\275\336\315=\354\'\202>\265\372\036\275\337_\206>L\303(>\207\356f\276Q\370\200\2768\025M\275\200\275\332\274\243\007\377\275\310\226-;\2414a\276\277\346>\275\255\203A\276/\006b\274\2478\014\275`\032\310\274\362A\332\275\006}v<3\002\'>\232\232(\273\212o\020\276GR@>4\236\024\276|j4>jEA\274t\343\271\275d\375\205>\341\215\377\274\0327#\276T\303[\276\266)T\276.\370\000>\205h?=\312\374C>\036\377\n=F\334\014\276~\\\337<\310\0340\276\270#\016=X!\330\275\223\374H>\363\215\201\276\'\342i>\343\221\256<I\377\247=\207\025\202\274\3243\363=-\247\036\274n\035\246<(\357\267\275M\357\036>\t\032<\276\363\351\244\276\204\247\311\276\n\036e\2768\200\265\2761\221\227\274Nv\262\276\342\277\240=\361\016\264\275xi\260\275\373R*\275\235\336\007\277V\342L>\204^\277<\320A\223\276x\202\206\274u\211\245\276\253T\343=\327\251,\275!\334\333>o8\341=\224\331k\276\215kr\276\252h\177\275\227\323\372\276ufb>z\267\304=fF==\320E\034>\240\265\205\276\003h\202\276U\r$>\326\215\035\277\t\034\323>^\020\345\275\227p\244<\321T\221\276\026\014\267=s#\357\274\210\230\221>(\020\030>\243\273\365\275\014d\200\273>u_=\301\331\225\276!I\236=\354\036\224\275{F9\276\002\034\037\276\216\t\t>\372\344\225\276?\267\211\276D\205\230\276\230\022\364\275^\211d>\217\346W\276\272\2335>\247D\032>\333=D>\031S&<t\345\016\277\367\312\034>//\213\275Z\204\206\276D4@>:\330\235\275\267\205\221\276\330\304\217\274\237\006.\276\235\300\220\275Q\3334\276\"\005i\275\365m4=\357\307\\\275\367\302C\276p\026\022\275Mt\274\275\330k\210=\2577j>\254=\243\276\241i\260=G\311k>>\322\201>\022\026\255=\276%5=+{<>\312\013F>\361V4>\2209\274<\330\242I>h\345\231>k\216\236\274-)\036\275\216\310\246\276H\3043>g\266\212>\370\323\006\276\035S\271\275\246\023\325\276\355b\233=\310\\[>\331\261\277>\256\245\222\276\221\254C>\320\316\235>v\220\253>\273\316W\276\256\226\214\276\263\230D>\330\241t\274\0020^\274Q\014\256;\321\302E\275\r&9\276\177\347F>\315\345\213>\300\256\020>\006\341\202>L5_>\226\'\026\276\277\344i>\352T\242=5\261o=\364\333,\276KJE=Q\276\004\276\016#\263=\250f\010>\261\371\034\276~y\234=k;V>vF\026>\233\326\234>\377\374\205\275\350fs>F?u>\346\316\232\276\337#\201\276\272fo\275F\335:\276\351\021\225\276\353p\037\276\307\322h>\031O\224=\301\345\335\275\022_\010=\036\2006>\254\322\256\275\241\353\275\275@\034\377\275\342\003\321=|\310\302\275}&\234>\206%:>\214\t\344\276\247E-\276\356\322\t\275?\3167\276\0167\242=\001c\347=\006>\002>\347.\333\275l(e\276?\024\310\275\024\2529\276\237\243\266\273\242\271$\276~_7>\265\226j\276\010\231k>\234\n\222>\232\363\217=r`\025\275k\310\001\274\265>\376=!\213\252=J\265\001\274\231(\253=\250\367\267=\372/\254>\365\030\377<\242d\352\275v\277\'>\320:\335<\264_\346\275\306\016[\276w\231\211>\314\233\222\274y\263\332=\317\202\033>k!\312\276WF\215\276\304\263M\275h\277\235\275\217D\204\276\247\213\230\274\361n\033>\237\267\200>\265\346F\276i6\220<\021\346\227\276Q\243\256=\340\\(>1\374\204>\315\'\256\276\216\263=\276\316\3744\276\233<*>\035\350\245\275jc\205>Po\232\275\222\332\201\275J\270\261\276D\240\334\275Ua\241<`\357\r\276\023\230\350>\266\342\245=\024\275\354\276\217\006\t;\030\372G>_\217h=\324\227L\276\224_\007>\333\375C\276<\321\237>\241cA\276i\346\233\276\t\345h=5\240\212\276\016F\035\276\356\360)\276\3128u\275\306\363\253>o>$\276\022\364\200>\224i\226\276d\177\205>\253G\246\276\314y\t>\361P\321\275a=\226>\261\n\322\275\004\270\235=\316\306!==\\\201\275[~\310;[\322|>\276\006f\276\021\347=>\362\006\177<k\236\213\275\r\342\210>\271\274\223>am\\>\301\0103>\ni\325\275\016y\264\2742\026\016>\016e\205>\351\304\323\275\307\276\303\276\023\266\303\275\343\036Q\276o\2200>M`\357\275\000\307\352\275\233C\347>\316T\347\274\211n\203\276\303=\366\275\302\232[<\332\212\203>\262\033F=\250\010\214>\037-\254>tt|\276`\023\307\276\336\013\320=\316+\n>z\013\033>\322!V\276w\t\031\2770\224\267=\256:\016\274o\314@\276/eL\275g\371v>J\215\315>\254\307\273=M\247k:~x\013\276L\036k=\243D\216>\t\032\377>\227$\024=\306\341\022>d\215\341=\355h\334=l\345\341\276O\274\317>6Rs>\363\005S>+\025&\275.\222=\276\276S\n>p-S\276\376\376\215=\217\216\344\276\371\231o>aP3>\377\264r=\317\207 =\263\324\265>w\002\277\275k\344|>\363w\217>;\202\002>f\324\037>\250[\242\276\313\036\034\275yv$\2764\362\261\276\204\3677=\033\222\001>\312ZF>C\351\003\276d\357~=\324X\020>\244IB>\034\242A\274\225\003D=\314\032d\276]S\026>\366\234\035>H\327\021;hw)>\227\306o>\024\341\355\275^\303\267<f\305Z\275n\336\237=\013`\244>\374^\213=\247Yx>\222T\032\276\337Bs\276H`\214\275\337jP\276|\301\247\276\rz\000>\036\213\">v\323\371\275\344B\335=\1775\013\276\025\014\276=:\274\231>\004|y>\335\025\246>\201\357\322\276\302\205S=q\212:\275\255\270\214\275\353\'\035=\234(\302\276V\210\217=D\210\207>n\211\235=L.\324=H\242\214>\373#\300\274\206>?\27622F\276\325\204\006>\235\347o\276\263\317?\276j\245\225>>&\200>\372w\211\275m\266P\276\365\263\004>\364\256E>\266H\340=\3674e>B\315(\273W\360\243\276\356\272\001=\303\026\270>\220\222\241\275\010G\333=\341\277g>0\312U=F\321\263\275\213\212\'>\035Bw>\177#\036\2756\320\'>\267ws\276\241+\022\276 `\034\276\327c\306\275\036)\243\275\014\177\202\276gb\210\276\244\273\237=\360\234\217>Y<\304\275s\373E>\202\244\201\276/o\266>\251\030O>\017_\n\275\342\001\035\2761\201\202\275\233\0325>\327\033-\276^\261h>\330t\252\275\247\252\326>\237*\215;o\271\034\276\276F->_A\272\276\256`L>\025\005d\276\326g\352\274\007\241\211\275\231\344\227\276\030\220Z=\"\305\020\276\3071\032\276\241\'\272<%\324\213\275!\362\204<+b\240\275\235gD>\336P\221<\372\331U=_J\010\275\373*\247\276\032\013\032>\300?\271\273\013\265S>\321k\272=\373\317H>\337\3006\276=\312F=\256L\313>\255\005\200\276\035\374[>\260\334?\276s\030x>\35038<Ex\326>\025\035\253\276t\216H>\016\332v\276\356p\237=\206\006s<\2532\231=\304\247\243>\206\275\317=N\372\325>\323\372\">\306\224\003\276{\332\030\276j\200\240\276\307\216y\274\347_%\276\263\216>>\352\363\177>\334^\224>\250X\021\274\242L\324\274\177\337N>I\271\367=\263\361H\275\327S\037>\020\277\215\274A~\246>V\037\177>\301\313\226\275\331\331\240\276d\032\001\276\373\t:\276gf\000>\332\3161>H\221\354\275\373\310G\275\351\270\213\276\201\334G\275y\356\346=J\247\326\275\266\255w\276\303\007\257=\203\370\240>\020Z\026>\010td\276\320!\203\275Ok\216\276\361-/\275\261\221e>A6$<\372\273#>\302R\024\276\027\314\263=0v\377\275\344\"\027\275\036&}=\222\303]\275\205`\022>0}\202>\037\254\261\275&\250\216=\030J\031\275\372\'\316\2749# >5\2378\276)Z\242\275\315\204\034\276\357O\364\275*6\373\275f\200\311\275UD\272\276\330\310\370=5\327\224\275 \276h\275\352\356\243=\372L\227\275P6\r\276\030\006\250\276@\214\244\276\236\006f>\210.\247\275X\213L<\306F\240>\023R\216\276\273]Q={\021\210\275h\216\306>N\016\233=r\222\255\275C\207\341\276\367\2309>p\231\273\275\\\001\257\274\035I+>\327T->U\370(\275\331z\301={\017\371:\211\315)>\206uX\276-\366\332=NQR=\344\306[\275\231\231F\276l\374s=\001\303\017\276,o\324=uJ\301\2743\370\037\2762\201u>\321j\220\275\310\201\200\276e\200,=\007\334\263\276\334\270\037=\362@u>\310\304\216\276/\210\321\275\037\202;>Kx&\276\316\307\004> \355\214\275a\252\336<\260\016Z\275\00256\275\257\320\352\275\303k\225\275\374\300>\276\016\373\177>\204\010\364\275\002\223\203>\254\301~>\231\240G>\027\315\276>xw\261=R\017\274>9,\324\275\335AU>\345\201\253\276\366\002\001\276n\363 >\001_\254=m\236!>m\017\226>\372\354\226>7\353\014\276\005\252\215<\335ZE\276\326\307.>-\323C>M\006\004>M\334\210\276C\334\363\275\261\366|>\242jw>\316\370B\276};\245>\205\277\252\276H4w\276~\322[=:\037\021\276#\\\234\275\377\225(=`\030\346\276-GE>\210\275\003\277\0258\251=1\307\373\275\027\372\356>\275-\244>\307(\341=\311\272c>%\2173\275A\032\023\277z&\003\276)\0006=\036\217\211>\211N\226\274\006\'\273\275\224\207\335\276n\372\250\2760\216\373\275\347\232y\276\"\004+>\016\014\252<L6B<\3251\273\275s\365\306\274\332T=>y\231-\277\217;\222\275\251\204\364\274\346\204\032<ly\310=\267\205\203\276\224;)\276\233Yc>\352U\032>\326Q\314\275/\3259\276\341\273\351=&]\247=L/,>\013F\223=\303\341\260\275\275\374\265=\241\244\272<P\273Z\274E\372\247\276^\245*?L\207\213>\221z7\275\034\310x>\213\275f\276T\366p<\270\342\271=\032\347\210\276\023\315t>\214E\207\273=X(\276\221+\263\275\234\020\n\276\237\362u>\375\313\220\274\"\354\366\276\234\327\205\275X\'q\276w)\003\275\005H\241=\336\000\207>\337\316#\275\013\256\265\275\334\025\302\275h\263\001<K\207\326=\302\001!\274\334\014\\\276\272B\261=\317n\202>\356eL\276\321B\030>Y\237\213>\206\000d\276\207\272o>\0061^\275R\367\311=\204\207*\276#\362\210>\354\202\215\2752\304\326\275n\367\230;\336rG=\272\214\013>\302X\333\275\342W\"\276MF\'>w\020\200\275\262J\364\272\3354\020\275\027!\257\276q\223`\276\005\235\240\276\225\244\023>\276\022l\275{d\031\276I\0273=EXM\276\232p\202<\273\271\311\276\321I,\276`\006\272\274a[i>\322\001\035>\321YS>\275D\346=\353\020\200\274\211\257\203>[\014\211;\013`T>\264\327\326=\271\317\260>\221\032g=9\203\214\275\314\002^=\026`4\272\222k\233>\034\374\024>ZT\006\276\255\013\020>\2379\207\2763K\203<\350\310\313<\276\276F\277!fX>]\361,>u\212=\276\251\344\017>\215S\226>\030\226\365\274[v\324<\352\360\377\2757?b\276v\322O>9=\203>\016\235\352\276\304#\026>\232\256?<\377\025\2159,u\026\276\335\305\005\277\200\374\033\276\266\261G\276\372\213\242\276\231Q&>\250\216\022>\236\t\020>\376B\001\276D\243v>\375D\014=\316\265N>\253\270n\276\2628\375\276Ku\251\276\203^\317\275\254\327\301=r\025\327\276\353\361\202\275\360\267\225=\367\365\274\275\344\372\220=\274e*<\355\007\332\275\024\376M>\335\025\370=\245\257\223=\266\371r>\013Uc>J\035I=7y)\275\013\303T;\013*\246>\252Ai>\250\242\235\276\314\002o>\332\353\361=\30366=g\270\023>\270\210\250\275\024c\241\274\223G\234>\332\032,>\361\336\254\2767\365\017\275\245\370&\276q\3422\274\3350\324\276\373\364X\276\331K\001>\356o#\276U\305\250=@\211\200\276\360\335\243<\252\343\240=\314\207\t?:\245\325=\276\000\014\274\260\212 \275\275}\243>\206\347\213>\247\376 \276\326,\266\275\032\343\301=\351u@\276\\\027\237\276\036\3123>\253\331X>rpY>\325\352U>y\te=\346\311\250>\257\326\252>\203\035\317\275\255\263\220>\035\001t=\026B\266\275\"\n>\276\023\016\004\276\302\324\220=\017\013J\276l\305i>y\nB>\372\007\221\276\366\375_>S\241\035>\217\232D\276\257o\223<\037\004\310>\031A\200\274\007\236\203\276\262}\264=\314}\317>\235\344\274=\325\200\334\275|\003\272>@s\362=k\205N\276\214\352\027\276z7\030=0qk>\244\014\030>\351Sj\276\210\032\035>\323\200\204>\r($\275<\242^\276s\235\274\275R\tO\276\2575p>\277\314+\276$\201\241>\031\022v\276\307AL\276_\322\215>\344\352\r>$\023~\276\231\035\016\275\026k\354=\0273\225=\"\241^\274o\225q>p@q\276\020\027\033\276\211}d<<\n\264\275\246\313\257>\372\177\354=<3\226>\tZ\230\276\321\004O>\025\'+\275\311\001`\275\037\216\000\276\271&\201\276W\000\034\275_\376\303=\013\2742\275k\226\200\276\234-K>\242\266Q\276\017\337\002\276\366s4;|\264\025\276`\036\311\275\356F\323=\215\007\242>\310\304\301=}B=\274\335\314\367\275\010\304\030\275\177.\344=\202\373\307=\254\3102;\327O\237\276>\200\260\275\205\235N>\2203\244\276\t\235\332\275PK1>M\220\224\274D\274\314<LA\301\274W\352E=\250\335\016>[\367c\276\333\331\216>\250\252\321>\213v\304=l\344\026>\036\365\256\275\000\224\205\276_|\374\275\235\026q\276?U\021\276K\326?><\360\302\275\025\351%\275;\342\223\276\272\325\"\276d\3160\276|\315\247\276\264B\345>\370\026\027>|\204X>\276\017\025>\n\037.>Z\313\220\275\323\264\220=\264\231+\276\037}\235>\004s\034\276(\020\004>\361FQ=4\357\262\276=J\254>\225\202\002>\"R\271\276\007\246\256\275\226e\306=9\264\216\276mV\r>\324Hq>n9T\276\207F\341\275\243>t\276Q\014w\276\277%\216=J\002\">\357\"\220\275\004n\220>\332\0243\276\357G\">Q+H>}\226\256\276\341B\242>v\204)\276\247\304j>h\2668>.H]\276~\026B\276\374\014\257\276\225\335\211\275\034-\226>\037\227\201\276\007k\032\276\270\336d=#/\213\276\002\360\363=\263\360\032>\271]\031\275\235\366\332\275\362c\2329\311%T>\374\021\025\276:\240\352=\030\257A>\331\302\217<g\205\006\276v\263Z\276\024\345\204>[|\215>f\000\371=TjX>\203\0053>c\367\303=?\261\035>D\236g\275$\024\215=\306t\200>\233\356\230<\231O\333=\360h\243>\211Z\242=\035-~\276,w\243=$-\310>D\242\020\276\346\272\017\276\016\235\275\276d\204\007\276\013.\223\2767\312\342=\234\254\036\276\031\001\374\275(7\021\2754\000\024>\250\225|\276P\212\274\2752\251\212\276<\0167\276\256j\315\275DJ\271>m<5>\320\360f>\024cG\276\017\t\022;&\207\304<\277\306\203=|\277\254>\310\036D\276\026\331\035\275\245\032d>\310!d\276\025.\024\275\257\026\032>U<n>iN\000>\367\271\262=\343-O=~bb>\022v\231>\270[0\2764\237\216\276\017n)<\262hb\276\232!\343\274\216A\\\276\261\235%>\211\224^>\'\216B\276\373V\370\274\035\265\236=\277%M>D\341\207\276b\320\372\274YmP\276\316\215\337=?G >\312\'Q\276\177\216\017=;\037J=\006\233\207>\314\364\337>38\366\275\334\303\211>\332y!>\332-\000=\242\244\350="
      }
    }
  }
}
node {
  name: "sequential_1/dense_2/MatMul/ReadVariableOp"
  op: "Identity"
  input: "sequential_1/dense_2/MatMul/ReadVariableOp/resource"
  attr {
    key: "T"
    value {
      type: DT_FLOAT
    }
  }
}
node {
  name: "sequential_1/dense_2/MatMul"
  op: "MatMul"
  input: "sequential_1/FirstLayer/Relu"
  input: "sequential_1/dense_2/MatMul/ReadVariableOp"
  attr {
    key: "T"
    value {
      type: DT_FLOAT
    }
  }
  attr {
    key: "transpose_a"
    value {
      b: false
    }
  }
  attr {
    key: "transpose_b"
    value {
      b: false
    }
  }
}
node {
  name: "sequential_1/dense_2/BiasAdd/ReadVariableOp/resource"
  op: "Const"
  attr {
    key: "dtype"
    value {
      type: DT_FLOAT
    }
  }
  attr {
    key: "value"
    value {
      tensor {
        dtype: DT_FLOAT
        tensor_shape {
          dim {
            size: 52
          }
        }
        tensor_content: "\023\343U\276\341$\023>~\205 \273\324\342\314=JF\304\275\270\201+>\034\333A\276\006v\203>\354\354\331=F\216\t\275\243 \302=\202\357\222>\376J#>\237\014%\276\225T\004=<\211\010\275\211jm\275\365y\333<\003G2=e\031X=\255\0306>\275\r\243\275\336\274\027>\230\356\222\274\200\343\252\273\213G\333\275\264\0227=\"\006\205>\221\244\346=\200\350\213\275\325!\016>;\374\010\275\366\302\004>\222\211\267=U\006\\=\245\305\276\275y\234P>I\207\352\274\206\313-\270`\017\366=4\270\257=\002\232\r\276Sq\026\275\207\327\016=a\226\001>\326l\277;DX5>\213\307f>\035A\253=\350~\241=\026\314[\275z\272\270\274"
      }
    }
  }
}
node {
  name: "sequential_1/dense_2/BiasAdd/ReadVariableOp"
  op: "Identity"
  input: "sequential_1/dense_2/BiasAdd/ReadVariableOp/resource"
  attr {
    key: "T"
    value {
      type: DT_FLOAT
    }
  }
}
node {
  name: "sequential_1/dense_2/BiasAdd"
  op: "BiasAdd"
  input: "sequential_1/dense_2/MatMul"
  input: "sequential_1/dense_2/BiasAdd/ReadVariableOp"
  attr {
    key: "T"
    value {
      type: DT_FLOAT
    }
  }
  attr {
    key: "data_format"
    value {
      s: "NHWC"
    }
  }
}
node {
  name: "sequential_1/dense_2/Relu"
  op: "Relu"
  input: "sequential_1/dense_2/BiasAdd"
  attr {
    key: "T"
    value {
      type: DT_FLOAT
    }
  }
}
node {
  name: "sequential_1/dense_3/MatMul/ReadVariableOp/resource"
  op: "Const"
  attr {
    key: "dtype"
    value {
      type: DT_FLOAT
    }
  }
  attr {
    key: "value"
    value {
      tensor {
        dtype: DT_FLOAT
        tensor_shape {
          dim {
            size: 52
          }
          dim {
            size: 26
          }
        }
        tensor_content: "\'u \276m\274\002=\'\032\240\275\332\235\343\276\347\005\260=\247\347\243\274\010\321\020?\223;\'>p\203\301\276)\000)\276)E\016?/\245\324\276\023\034\013?\220\230 \276.\035\024\276\375\324\n?\366\236\\<\n\'\237>}\270\004\277\241\223\371>;\222\205>\035\345v>\207\277\n?M\277:?\255>\310>\301h\n>\211W\363\275b\342&>\310h\252>\225/x>\316\265@>\026\307\261=\236~\226\276\267\002#\276\253\273\240>yA\323\275\312\353\022\276\237n\232>\371:\223=\310\252\\\276\325\252\213\274\'\217\317<\025U\204>\350%\000\273}\221#\275\002\271\263\275|\324\006\276Nw\353\276\026\"U\275\231\354\332\276-\330\312\275lM,\276\334i\'>\026pe\276\377\373\253\276l\004\006\276?g-\276}\202!>B\215\332=\211CJ>\322\021\\\275\200\027\023>ld%>\310_\333<}\321\210>\242n\271\276\025\302\336\276\314b\226>z\342\024\276\002<D>\362U|\275\277\376\366\275\035\006\323=\212\250\212>\355\263\177>\374\344m>\260\326\213>\235\255\247\275\260\007\357=9\357\260=\221A\221>\246\326\244>Ro\342<Y\3738\276\226\372\276\275)8\036\275=\241\203>p\363\316=\341\236\364\274\251\312\004>|\036d>`z\326<\037\t\216>\333p\r\275}\3031>\325\007\234\276\266,m\276a\252&\276\000\000Z;x,\221\276M\207\311<F\345\203>>\214\374=\337\267\003=\201\2141\2739\222\227\275\267\241\031\277\325[\270\276<\356L=~-h\276Q\022\222=\33140<\345\224\211\275\314\227\366=\215ii=1\251\001\276!Y&\276\033\277\230\275\013\237\272\276\211?S\275\276gG\276o@%\276Qg\022\2768\220\007\277\370\251G\276\332=A=\202\260\207\275\323\t\264\276b\355e\276\377\333\023\276\346\233\225\276\002\210O>>\354\214>t\221a>\374gI>\304\267\202\276\214&\205\276\240\362\236\275kyC\275\235\303>\276}\366\257;w}\037\276\335\027\303=\321\335H>\207\311m>oK\220\276\360\302%>r\244\300\276\345\301\207>D\325P<\024\313\310\276U\342\320=\325M\262\276Y\225\000\273\3446[\276\000\266,>\214\254\233\276\373\253\303>E,\002\275,\026K\276\237\311\234>]iI=\262\331)\276Vp\371\276[E\t\276l\217\247\276\302P\010?d\353\266\276d63=\024\276\263\276\260\375\025>}\351\213=O\375s\276\315\370\324<^6\030\2779\371\243>\320\256\"\276\367\222)>\243\364#\276\340\355\254\272T\241\t\276\334)\245>H\214\206>{\277e>\334N&>;\010\307>mxo>OC\235\275|\377\243\276\371\010:\276\'\002\255>C3\035\276E\232\205\276\257\310(\276\014\201\270\276\325\006>>\n\216\274>\022W\206\276\245m)>}\230*;\007\240\273>7\312\355<\2727\314\276\234\273)>1q\312\276\020\022\203\276\220A\322\276\0003\375=\244\304\217\276\257\353c\276J\014]\276\002\243\262\276\347:#\276@\352!>\254o\t>\315\262\371=\262J\027\276\340\014\214>dX\310>q\241\371\274\233\304\246=Q8\010\276\255\324\205\275A\320!>\207jB\275\301O\325=6\\\277\275lZd>N\335\211:\245Q\r?\371\177\242>\014\034\026??\352\336>Y\326%\276\343vM\276\n\014\216=E\344\275=2\2047\276\177Mp>\217u\255\276\254\242\337=I\366\024>\216\206\355\276\303\361w\276\205KK\276\242ZD\274\263\327\244\276am\265\276\013\177c=\036\214\202>m\373\230\275\222Ii\276\225 m\276\313\307\335=!f\364\275@\375=>\234-\253=g~\r\276\377\320\202\274\367\273u=.\366\363>{T\200>}\272K\276D\271;>\307\347Y\275\243\254<>\264\256:>\026\254\346\275=T\330=P\034\035\275\270\205\241\276\3732P?R\007\362>\031\272\237>\334\273\003\276\377\201\271>A.\031\2773\301\257=sW\313>X\025\022\275\335\340\227\273\372\036\313\275\357/\343=\035}\207=\307y\365>R}\004\276\253%\337=\023V\322>\007\206Y>n:\250>\327;\225=F#|><\301\355\275\007\230\025\277X\264\340=\2335k\274e\206\231=\231\207\371\276?|\023\276,\376\233\275t\241\331>\323;\313\276O\025+=\271\352\233\275\007\247_\276*P\320>*\322\242\276\256\332\333=&\300\345\276\302\255@>c\353\316=\362n&?\2709j\276\226Y4>\330\\\000\276*q\006\276\213=[\276\341\331\213\2762\224 >\226\025\262>\006\352\307=\206\375\375=Q}\031\276&8 >\202\274\261=0e\001<`;\223\275\334\300\227>\312$\346=\267^\020>\0369\233\274V\227\235>#\275>>\311\236\235=\340\204\306>:\366\225>\027</=k\334:>\027\017\333<M\316\030\277T\350\372\276n\230i\276\272\222\244\275\320\317\211\276\023\277\372=R\341\027\276\223\256\211\276\325W\353\275\326)\214\276\227\022\317\274\332Jb>\237\330\274\276\367\200\024\277\271\321\211>Z\340\241>\030\221\251\275\350\255\203=X&\350\276?\220\204>\325U\324:\253\035I>\346\337\320\275\216\371\227>\220\335\265\276\360\020\007\276\267\r\232>\332\244\372=h7\231\2730\204\231>\006C9\277J\206\r=\271\304\264\275\375\246\033>\370J\255\276\000*\333=2\203\220\276#\025\261\274\337\364\005;71\252>kC\022\273\010\213M>t\344\260\276\333g\304\276B\357\276=\023n\002>w\010~=\026\324\303\275\026\325\227>\365\302P=\370\027;>\313\310\n>\330F\246\276G\021\007\276\023\314\334=\244(^<F\206\216>\310\221\306>\200\270\001\277\021\242\232>\256\350\233>,\270\025>|\3745\275\223\374\351>`\272\312>\222T\204\276\260|o=O\207\327\275\370\250\213=\363\332\244>\"\253\210<\320O\264>\277\237\026\276\t,\216>\231\207\217>\365\000S\2761\006-\275\322\363\013>\nYy\276\206g\035=\352W\310=\034\301 \275\222^0=\306\322\266=\266`_\275wm4\276a\226\374\275d\225\243\274\344\006(\276\367\021n\276{\234k>;\201O=i\230\001>\233\n\\>\202l\t>/\321\001>H\304\\\276\275#\235>\030\315+\276\345\361i=\361Z9\276}tr<y\371J\276\345\223\212\275\364v\031\275e\016\213>+F\\\276\315\275L>\300\311K>\231\235\257>\013\313&\274a\307V;\364\031\353=G\214\362<\306\312\255\276\351\271\246=bM\330\275D\373=\276\336t]>\372\313c\2762X\250>\330\276\n\275\342J\363\275\214\025\207>:\262\330=\323\240=>$/\352\2751\272.>\315h\367=H\270\205\275\n\360\267\276\241\273\303=\010\3001\276BA\247\276\270~\213=e\254\325\274\003\320\020>\271\225\354=z\307M>\211\212\007\277<^\331>}\034B\276\013\325\351=\242o\270\276\032\254\203\274\335n\320>0\004x>l\357h\274\010\367\305=^D\236\275\315m\233\276~F\220\276@s&\276\237\244\200\276\320\337\245\276=\337I?\330\212\201=\244\264\016>#\270e>\271t\314\276\033,\343>aN\'\276\353h\006>o\376E>\302\221x>\307\365D\277\354\343N?\274_0\277P\261\324>\245w@>N\277\006\277%#\034?\322\004\265>\320\007\032?\3425T\277y\332\343\276n~\307\276M\030\246\276\016\202\242\276\t\315\270\276\\\331\203\276\270\333\374>\224k\243\275\227\313\264=\341\026g>\016\313l=\264\352\340>7w\211<\304\nd>\212Z\227=\266\037\222>Jq\000\277J\241\367>UQ\030=\256dG>Fc\222=D\"N>\261Nl\277\030n\235>\224\220&;\245/\355\272V\t\313>\270\227$=\366\355\243=\223\336\346>\322\222\003?\001\203\224\274J\324\335\276\375A\250>b\244\305<\210\032\240>\3144\306>\006\254]\2777\325Z\275\035|\001\276 \016\214\275Z\014\210\276\204\023\372=\354\023\014>\354d\277=\333XJ\276\233Q\031>KM\362\275\216\345(\277\325F\312\275b]\306=Y\243\021>Qe!>h\327\305=\242\211\023>\201[\027>^\022\376<F\tV>\200\316\210>u\345\224\275-\234\306\276r\250=\276\036\227\235\275\016\252j>v\207\267=\003\366\027>\251\027N\276\253\311m>]5\222>\313\200<?\\\301\370\272\2518\'\274\367\331\242\276U\250\206>n\024\222>\017\014g>\235\302E>\372.O>{J\326>\260=^>{\235\366>O\204\263>\225\005\213>M\376\273=\362\340\230=\316\212\253\276\201CB=\370\255\251<m\376\315\275\251\314\r\276\0329k<\215\246\274>\361\365g=\213\377\235\275\341JJ\276C\002<=\376,\265\274,\301\177:\332\261B\276\357\376\r>\031\345\352\276$\331\221=!\242t\276\326\232\001\276\031?\343=\357\025\251\275\242\307\313=\231M\016>\222\336\324=P\016\374\276|/9>\241\253Q>\267,\246\275\276\330q\276U\320b\276\301`P=fk\326\276Z\301j\276l\221\025>\357\344\215\276\225\"F\275Xm\205\275F\254f\276\322\346\237\276\254k\201=\350\305\340\275\'O\001\276\016\275\232=\232\236\227\276=)\034=\220o\232=\000\241\266=\037\213J<\363Tg\276NIS\276C2\266\274\\\253I\276)\212\346=\336\273\036>\345\341\244\276\277O\022>\232\006%\275c\321\227>\342\343\n>\3261\201\276gg\250>g\232\013>\200\010>>U\207P=x\277.\276\201\220\">\333\316\003\276\336\316\022>.\327s;\272\226\303\275\006\313\227>q\231\271>\361\010\006>{\\\330>\335\023\220>\243\201\036\276t\300\341\275\006\306\022>\312xZ\276\374\322\200\276\374\220\340\275\271\177\205=\265b\014>\025\373\321=\036\203\232<\335\306\235\276\317\361\261>\224\233\341\275\326\230\365=4{\020\276\005\321\034\276X\331\262\276\270\375\233\275S\366^\2762*\330\271c\276\256\275H\276Z<\2057\227>g\2225>\017\330(>3b\266>\312\333\021>\030\344\010\276\236\256\227=\241*\364=\350\233V>%\340\234>,\036\255\275\003\r\271=\023\177\327=oG\272>\274\014\276<#f\007\2765\317`;\200\377v>\004P\241\276q\232\340>A:6>\367\375&>h);<\022_/\276\304\311\233>pk\263\274\216\254\027>_\340\000\2761\203\213\273\000+\031<\\\275L\276\364C\203=\037 \253\275\305T\204=\016b*=\212\223\313\275\223D\346=-&@>\007/\016<\031\177\035\276j\257\374\276\003\"\333=_hB>qE\261\276Q8\265=\364\246c\276\036\261\351\275\314Q\027?\226\262\014\276\312\014\306>\247\237\232=\312\212\203>\320\336\241>\336\231C>\374\243\013?\333Z\371=6X\211>{\343\313\275\314E\361=\275\276<\276Q\221\266=\304\021\005\276\340\245\032\276\303\215\336=\223\335^>\030\304/>\0278\212\276\255PG>;\3264=\300:\004?\303]\262>\3070\010\275;\t;\276\223\271N>\344}\177\274\022\315\226>x\233\034>\340\003\273\276\322\260\017=\334d\202\276L\024\260\274\306d\226=}_\201>\323\334\025\276z\267\231>\221\275f\276oW\262\275\322\320\020>`\305\275\275\232\033%=\037\037\001\276h\005\014>\264\371\033>\277\262[\276\260\023\305\276\220\314\235>\232\323m=\335\236l\274\031):\2764\235O:\271+;\277\225[b>\277;\324>\252\325\233\276\231Q5\276\305\\\326\276\200$\223=0g\254\276\027\366\222=\315\002\367\276\274|\211\276\035\353\250>6\236~=\363\352u>\037\364\247>5d\345=Y\017%\276\344\014\323\275$\377+\276V0/\277C\257:;}\243\276\2751\002\006>\010p\226\275\272\256\263=\226)3\276\233\255/=\336\344n\276\361;\263\274\244|\034\276\206\351\243\276c\035\022>\300i\327\276#\'\212\276\002\306O\276\241R\233=\031\377\213;\021\322\217\276W\372\306=%\245\355=\274~f\276\371WX\276P\0333\275\327\025\325\275\317\037\036==\325\210=\243\224\267\276\016\030\375\275\266\354\326;\366&d=d\263\313=\312\376\270\276\301\200\211=\031\346\325<\022\010\025>\032j\317\276\221w5\275\202\005\254\276bg\255=$\231\213\276Q8s\276&\000\"\276\210S\203\276\312\260&>\032\n\245\275\357yQ\276\274l\262<vc\322\276\242\"\313>F\204\353\274\"\273\334\276\362\204\311=\253O\202>C\253)\274\2737\321\274j\021\275\275y\362\253\275.n\237>P\210\307\276mO\220=\371Y\227\276I\"\236>\007H\233>i\357\336>\n6\006>\320k\347>\r\023T>\371\247->;\360]>\023,\304\2755<\341\2768\277\243\276fA\315\2767\246H=\235\371\241>\336#\352>\355\314\005\277\271\230\272>\'bp>c\322\214>\014\276\037?Q\351\026\276\020\016\265=\314\030\365=\375\217@>y\301_>\331 \037>\202\034\327\276c4(\275\343e\235\276\306\367\022>\253\332\211>;\230\233>\242\r\232\276V\005^\2756F\362\274\227\216;\276\373\232\260\275q\2115\276\244?T\276\203\273\204>\365\275\205\272/a\021\276\333\230a>\315\347;>\213\263\206\276E\325\257>=K\177\276\032\201\200\276\375\201\222\274Nh\261\276:F\233>\2414P\276\215\004\245>G#\217=:Z\213>\277\263m>\3502*\274z\205z>\016C\363<\206?\032<$\237:=\333sF>\232\226\237=\232\264\007>r\000\206>\355\014\367=\214\333\003\2768\343\214>\n\207`\275LD\260=0\t0=z\036\310\275Vz\206>\272N6>\022w\034\275x\214\241\277\301\334Q\275\255\326\273>\026#\226\275\3050\357<+|%>YK\271\276\220uV\276\201\351\363=\206\306\007\276\266\353\264<\256i}\276,J\026\277C\006\332\276S\306p=\300\317w\274\357\345\256>\306M\242\276\351\017\362\276C\254\271\275\024\314\322>\264\317\355\275\222\n\275>1\202\016\277|?\007>#\376\337>\222\0259>\330W\212\276\377\324\313\276\225\270\264=\332\301\023>\272\\\262>\334\305\010\275b\352\001?U8\004?\334\213X>\353J\372\275\035\216+>\n\323\232>qS\021\275\013f:>\213\373\230\274G\342.=\027\t\324\275\034?C>F\325\367=U\275{>\373i\362\275\312\275\006>\342H\273\274\230x\336\274(@u>e\2015\276V\330\007\277\322|m>-\215T>\34610=\266k\204>\213+\267\272!\223\213;\2226\227>\235\273\237>\217\226\242>\t\321\032\276\216\355*>\250\271\037\276>\007u=\203q\247>Ug\207\275\3210\212\276-bX>h\271\312\275|\225\241\274\360o\366\275\342\236E\271\367\236v>\036\014)\276\227Q\313\276!\364\321\275K\270\352\273R\005\235>\366uY\275\374\227\253\276az^\274\341[@\276k\022\t\276\366U\225\276\335\306;\276\331Y\277=\274\313A\276\211\274\237=\374\221\271\275\337\345\016\276\300\"i\275c9\034\276J\314\211<%\303x=\354&;>n#F\277e$\245>z\270N>dYN>\025\277\270=Gl^\275\016\337\034>\353\334&\275f\356\277>\324qP\277T\307Y\275\342\000\356\274\225\007\251\276\245)\225\273\273T\337<r\352\235\276l\022<\276\370ll>\020|\346\276\243\300a\275&\353\261>D\374\363\275\243\247?>yN)>/\313\033\277-Y&>\233\311\314>\002\326D\276c\207\214>\357\260\307\276\005\023\351\273\320?\257> G\237\276Z\311\324=\220=\225\276\364s\241> \311h>\330)\340>\242\234\201>E\275\250>2\013\\>O\215\346\275\265\263\r\276\360A\037\276D\207\206\276\201\304\260\276\263\307->7(^\274|\236\327>\234\334w>\3759\222\276W\023~\276F\323\252\275j\252\020\276\253\356\264<\256\260@=\243v\200\276)\177\265>\240T\356=\224U\203\275\265\300\230\276\014+\222>\263\002e>\351\255\301=\273\'\322>\220\332\276>2A:>\261\226w>+\263}>4H\347\273\333O\206\2763\254)\276\306iU=Q\217\023\275\340\2148\276\342\333+\274\34362>\037\216a\276\325^/\276\335\260.\275\242\374y\276\321y\203>\003\362\306=\246\254f<Gy\317\275\312\016~\275\277\304\303=\252\335\001>\240YH\276b\2128\276\000\356\310=y\2446>Bc\323>\322\236\025=4|\327=\033\t&=c?\225>\232\275@>T\301\357\276\343\247\212>\204mw\276\034_\227\2768G\024>\355$\215>\317\027T=K\301\314=.\314\037\275ps5=\3604\330=\004{R\275 \242+>p+\000>g\002\004>\233\036\005\276%w\270\276F\364\027\276\202\273\001\277\3575c\273\213X\"\276\025&~\275\242yu\275\312Hi\275\363)\022\274\313U\207=nVU\275\256\0354\275E\3712\275{\213\222\276nmP\276z\335\020\276\340L\240\275\246\272\006>\361\364l\276K\203\322\275Jl\237>\342[\304\276\333tv>\230\361\240\276\217\363\272\275\214L\345\274\353\360\201\276\271Y\270\276l\365\277\276l\235\231\276\254\251\250\276\031\025\247>!1\035\277\212;\250>\345kS\276\355/\235\276\237v_>\023*\"\277q\205m\276\037\261\232=\317\n*\277\342\226\000\277\374\2356?\242\376\244\276\262\307\300\276\356z\231\276\256\t\304=<-\364\276\324\261\016\276\035\336-\277\372\027\373\276\241\007\204?\375O\241\276\001o\373>\200\342\014\277\331\333e>~,\037\277\263\036\213>\333\243\034=,V\252>57\023\276\345\310\213\275\342x\270;\307i\320=\343\317D=\2723q\276wsT>\237\374\021>\261\335\256<\234\332\226=\007X\376\275\n\306\036>\361\317\233>\342\035\021\276E#\300=\344{\007\276\032\205\035>6\363\324<\201B\250\276\345\236(\275\r\037(\275&M\255\2766#\212=}\367\247>\225~\016\276.\247\340\276}9V\276\362b\344\275\314j\022\277\353P\253\276\321\347\225>6\321\313>}\342\270;\'\217\201>Z2\207=\326\006d\275x\025\267>\300\363@=\303N\273\275D\202\r>\t3\242>3\244\230\274sG\337\2750\262\240\276|\251\244>XP\262\276?\374\252>}_\035\276\025\016\237\274\234z&\275&\263\371<V4`>\205\340->G\322\367\274\032\202\207>L\314\212\276\0161\277\276\230=o\275&C\277\275\237\250\272\276L\322\031>\255c\311=$\2168\276\335F,\275%\265\337=wM{<\265\345\207=h\346\322\276\255\035\347\275U\326\361\275\034\367\274\276^\225\'>\316\307\254\276\033Az\275~\355\207\276\227\204\353>-\321\237\277\243o\243\275%\300{\276\023\031\265\275\003\243v>\362\222\332\277,\265%>\035\266\266=\236\307\337\275qt\310\277\351g\366=\027\377\361\276`h\216>\333\371\004\277\035*\365=\242\320\002>f\351\177>\261\033\027>\232\376\362\276s\207\217>\324\030\322>\205\000\251>\240es>\355\032\223>\212_x=\317\254\246=\312\342Q>\346\256\246=R\315\270>\"\237\007\275d\264>\274\317o\274=\371A\275\274G-e\276\te/>U\002\374\275h\326F\276\n\0147\276\342\231\263\275\255E\265>\322\217\204\274D\276\344\276:q\201\276\300H\000>:\336\260>\305u\365\276\206\301\277\276\300\227\026\276|\221`\276v\275\016\277\302[]\276\270#\246\275"
      }
    }
  }
}
node {
  name: "sequential_1/dense_3/MatMul/ReadVariableOp"
  op: "Identity"
  input: "sequential_1/dense_3/MatMul/ReadVariableOp/resource"
  attr {
    key: "T"
    value {
      type: DT_FLOAT
    }
  }
}
node {
  name: "sequential_1/dense_3/MatMul"
  op: "MatMul"
  input: "sequential_1/dense_2/Relu"
  input: "sequential_1/dense_3/MatMul/ReadVariableOp"
  attr {
    key: "T"
    value {
      type: DT_FLOAT
    }
  }
  attr {
    key: "transpose_a"
    value {
      b: false
    }
  }
  attr {
    key: "transpose_b"
    value {
      b: false
    }
  }
}
node {
  name: "sequential_1/dense_3/BiasAdd/ReadVariableOp/resource"
  op: "Const"
  attr {
    key: "dtype"
    value {
      type: DT_FLOAT
    }
  }
  attr {
    key: "value"
    value {
      tensor {
        dtype: DT_FLOAT
        tensor_shape {
          dim {
            size: 26
          }
        }
        tensor_content: "\350\026\261=\001w\326=\0174O=2\366\222>\224\213\267\275;\353\362=C\023\027\275v\310\217=HpW>H,V=\347m\336\275H=\252=\366`\004=SD\223>[\310\035>4|\353<\2116\313\274\376!\350\274\265$;>@\236\262\275\351\265\032\274\"q\000\276\263\204\322;4\245\350\274\227%\002\274\313#D="
      }
    }
  }
}
node {
  name: "sequential_1/dense_3/BiasAdd/ReadVariableOp"
  op: "Identity"
  input: "sequential_1/dense_3/BiasAdd/ReadVariableOp/resource"
  attr {
    key: "T"
    value {
      type: DT_FLOAT
    }
  }
}
node {
  name: "sequential_1/dense_3/BiasAdd"
  op: "BiasAdd"
  input: "sequential_1/dense_3/MatMul"
  input: "sequential_1/dense_3/BiasAdd/ReadVariableOp"
  attr {
    key: "T"
    value {
      type: DT_FLOAT
    }
  }
  attr {
    key: "data_format"
    value {
      s: "NHWC"
    }
  }
}
node {
  name: "sequential_1/dense_3/Relu"
  op: "Relu"
  input: "sequential_1/dense_3/BiasAdd"
  attr {
    key: "T"
    value {
      type: DT_FLOAT
    }
  }
}
node {
  name: "sequential_1/dropout_1/Identity"
  op: "Identity"
  input: "sequential_1/dense_3/Relu"
  attr {
    key: "T"
    value {
      type: DT_FLOAT
    }
  }
}
node {
  name: "sequential_1/FinalLayer/MatMul/ReadVariableOp/resource"
  op: "Const"
  attr {
    key: "dtype"
    value {
      type: DT_FLOAT
    }
  }
  attr {
    key: "value"
    value {
      tensor {
        dtype: DT_FLOAT
        tensor_shape {
          dim {
            size: 26
          }
          dim {
            size: 3
          }
        }
        tensor_content: "\3263s\277\010\227_<\025\373\326\274\220q\214>\371\226\223>\336{\022\277\204T\240>;\307B?K\255X\277\231\033\010\277\273<Q?\364\361r\277k\213\034?\371\033\337>9:\003\274\276\335\207\277\263 \371>\317\351\r?\303}\233>\361P\002\277\361s\232>L\336\017\277;\217\000\277\230dy>\237\212\244\276G\341^?]q\202\277:6\004\2777^;\277\017\341\204?\256\234H?q\373o\277\206\n\023\276\036/:\277\031\026>>\306\240/>\022c\020>&\322\265\277\236\235p>\367)\035\277\314`\335>d\252z>\224\225\375=\002R\226>\236\033\372\276\026\005\362>\311\224 \277\237N\340>+\031\227\277\225\334 ?\222td?\321\"\201\276\303\307\003\277\335\267\374>@I\277\276\315\037\t?\205\024\275>s~K?\r\342\'\277#KS\277cf\030?\235J\215\277u.\022?,?\340>\240\373\203\277\302\034t\274\201\353\277>.\024-\277\310\223\311>\213\343(?\277\354\013\277\003j\006?\357\215\013?\202\372\202\277\376\202\351>\347\275\354;Z\330\277\275\017\275J\277"
      }
    }
  }
}
node {
  name: "sequential_1/FinalLayer/MatMul/ReadVariableOp"
  op: "Identity"
  input: "sequential_1/FinalLayer/MatMul/ReadVariableOp/resource"
  attr {
    key: "T"
    value {
      type: DT_FLOAT
    }
  }
}
node {
  name: "sequential_1/FinalLayer/MatMul"
  op: "MatMul"
  input: "sequential_1/dropout_1/Identity"
  input: "sequential_1/FinalLayer/MatMul/ReadVariableOp"
  attr {
    key: "T"
    value {
      type: DT_FLOAT
    }
  }
  attr {
    key: "transpose_a"
    value {
      b: false
    }
  }
  attr {
    key: "transpose_b"
    value {
      b: false
    }
  }
}
node {
  name: "sequential_1/FinalLayer/BiasAdd/ReadVariableOp/resource"
  op: "Const"
  attr {
    key: "dtype"
    value {
      type: DT_FLOAT
    }
  }
  attr {
    key: "value"
    value {
      tensor {
        dtype: DT_FLOAT
        tensor_shape {
          dim {
            size: 3
          }
        }
        tensor_content: "\334\372\202\276\215\007\201>\021\2114\274"
      }
    }
  }
}
node {
  name: "sequential_1/FinalLayer/BiasAdd/ReadVariableOp"
  op: "Identity"
  input: "sequential_1/FinalLayer/BiasAdd/ReadVariableOp/resource"
  attr {
    key: "T"
    value {
      type: DT_FLOAT
    }
  }
}
node {
  name: "sequential_1/FinalLayer/BiasAdd"
  op: "BiasAdd"
  input: "sequential_1/FinalLayer/MatMul"
  input: "sequential_1/FinalLayer/BiasAdd/ReadVariableOp"
  attr {
    key: "T"
    value {
      type: DT_FLOAT
    }
  }
  attr {
    key: "data_format"
    value {
      s: "NHWC"
    }
  }
}
node {
  name: "sequential_1/FinalLayer/Softmax"
  op: "Softmax"
  input: "sequential_1/FinalLayer/BiasAdd"
  attr {
    key: "T"
    value {
      type: DT_FLOAT
    }
  }
}
node {
  name: "Identity"
  op: "Identity"
  input: "sequential_1/FinalLayer/Softmax"
  input: "^sequential_1/FinalLayer/BiasAdd/ReadVariableOp"
  input: "^sequential_1/FinalLayer/MatMul/ReadVariableOp"
  input: "^sequential_1/FirstLayer/BiasAdd/ReadVariableOp"
  input: "^sequential_1/FirstLayer/MatMul/ReadVariableOp"
  input: "^sequential_1/dense_2/BiasAdd/ReadVariableOp"
  input: "^sequential_1/dense_2/MatMul/ReadVariableOp"
  input: "^sequential_1/dense_3/BiasAdd/ReadVariableOp"
  input: "^sequential_1/dense_3/MatMul/ReadVariableOp"
  attr {
    key: "T"
    value {
      type: DT_FLOAT
    }
  }
}
versions {
  producer: 561
}
