node {
  name: "FirstLayer_input"
  op: "Placeholder"
  attr {
    key: "dtype"
    value {
      type: DT_FLOAT
    }
  }
  attr {
    key: "shape"
    value {
      shape {
        dim {
          size: -1
        }
        dim {
          size: 26
        }
      }
    }
  }
}
node {
  name: "sequential_1/FirstLayer/MatMul/ReadVariableOp/resource"
  op: "Const"
  attr {
    key: "dtype"
    value {
      type: DT_FLOAT
    }
  }
  attr {
    key: "value"
    value {
      tensor {
        dtype: DT_FLOAT
        tensor_shape {
          dim {
            size: 26
          }
          dim {
            size: 26
          }
        }
        tensor_content: "\345\270\202\2732j\210\273\244.\263\275P\357A\275\025\326/\275\310IM=V]\246\277]\336*=\300\215\235=\354\272\322<\"e4<]\346/<\244X\030=\326c\271;\034\376+=\350K.\273-%\325\272\010s\031= \336$<\251\250T>\025\340\036\273\352\260\220=\355\324\215\275\302\007\372\275RtA\275e!\021\2762D\260\2749}\244;\371\306=<\214\"\020\274\352~\033\275\005mm\275\211\001\223>\356Z\356\274zq\235<\032\230?\273\025\375\252<\256\243d=t\332\024=\322\024\034=N^\365;\350\375\034\274$\276\246<m\3535\275\237\330J\274\276\341\220\275\210\200k<\335\317f=\237hL\276\231\311\026\277\274U\232\274\345p\253\274\332\333\257>\302X\000\275\252OR=\212\225\032=\237\320\327\274\371\306\033;\375\326\016\276\201a\322<I\354\247\275\206\305F\275\210\366+=\327\013*=O\305\330\274X\341C\276\244\253\357\274\221z!\273J\300\263=\026\343\233=%\023\271\274\235QC\276\303\361\217<\343\2346<.J\221\276\221\350\037\276\201\324\267\275\017\323\205>jA\266>\\\330\270:\242E\240\275a\352\004\275\233\323\330=^\255\375=\370\307\312=\375\265l=+\263\244>_\262\242<\271{K=M\346\353<\325\367\336\276\000\335\321\276\236\r\033\276d\262\242;\013\317\'>X\326{=\376\260\210\275\256y\334=aA\332\275\317\004\334=mx\313\275M\217n=/!\247=@\364 >\244\031\302=$\323\010\300\207\246\345\276\335\216F<s\3046\2776\025o>m! \273\230wL>\005C\t\301\377\331\210\277F\021Z>\030\242\023>\261\252A>\353\221R\277\347\314\337\277\201\020\027\276\303\224$=\330#\225=\"\300\032\300%x\273\3004\242C\300\343\001\001?\313\275\337>\257N\244\277\177i\210>\35291>\036\367\360\276\327\355H\275\250\306x\276\244\320\032>N\320\313\275\240\301)>\225v\202=Bl\032\300\034\341\237<:\316l=Y\026\337\274s\215\225\276\031/3\276\207k}>,r\016;\202\\\205;\330\360\211\274\006t\304\273^r\242\276\302\313\254\274\034x\252=N^p\275[\207,\276|\276 <\253\210U=s\252\206\275\220\312\275\276R(\301=\314\315\205\275\246\231\231:i\271\243>\2260L?\303\304\223\276\214\377\354=?\314\">\363\246\201>\200\374\376\275of\313=\216\344\007?\214\316\000\300\363\254\306:\221\363\256\273\253i\357\274\350)\017:\307\230\202=\220\202C\276\027\232y=aG\024=c\331\r\276m\277\267>\271\210/>\026\204\027\300\306\354\010\275\244\2708\276\363\336\375=\276\032\275=\323U_>-\275\005?\250\273\311\275ny\014\300A\302}\276d\332V=\003IG\274z_\005?\037\321\013?\345\"h\276\365\022\002\276@\240\220<]\304;\276}\217\204=\256\336b\275q\037\254>\021\354h\277\376\235\'\276\033\204\264\277\003\n\030>\370A1?O\236\2509\375d\035=\235\\\321\275I\326\244;\262\262\353=B\214\256\277\321\252\360=\343g(>\216\216\334=\204\3501>k\206\005=\031C\210>\335b(\276\351\303l=}\336s>4GX\274\024\242\271\273v_\036\275\312l\244=\343\302+\277\335\272(\276\232rV=\213\216)\275\352-\310=\276\331P\277E\344\010>\033\217u\275\375P\361>\254\314k>\225!\037\276\343\237\277\275y\257\322\277\212m\261=\322\214\"<=\362\211=\031j\210>\337{@\276\3510\305>\215t\356\275K\"\351\275$>\360<4\332\370\275\\s\205<VI\276=\243Z+>\030\003\220\277\210y\227>\266\263\260\274\224\021\031>s\327\210\275\016)\240\276\324\001\316\275\246\206\212><\326\244\275\002m\007\275\3121\277=p\027\302\274\263\0019>\262\227\336;=\nb<\367\221\375<`L\023\274\361\027\241=\254U\351\275\007\214\366;\237\"Z<\366\037\031=0\277\247=\355\314\r\274IzL;&\010\266\274\301ir>\371Zd=4\365\254\2758\3156=\027\031&>\360\262N>\203\356\254\275\213\311\354\275\304W\244\275\202\375\207\273}\2056\275\230R\365<4/-9(E\020=\037;e=\003\013\353\273g\344\373:a9\007\274\235\217\207<\327\345_\277\370*\320\274\355\3067\274\031\343n\272T\0213\272\027\350\235=\336\362==\035]\236<q\274\206<j\351\360\271BRB<\302\322\360\274I\333\210<\376c=\274^\336\177\2729\224\361<<o\277;\020\254\362\277\2333\032\275\373G\201\274\246\213\242\273\320$]\276\264\200\007;\226ma=\362\242\275<\"C\222</\263\317=d\350\364<$\005 \275l\210A=\270\213\351:\347\267\035=\030\360S\3006\227:\275\217\320\034\277[ke\274\014<\016=\246t\023\275\372\0310\274\361\364\261\273\234k\303<.\275\r?\222sV\274\274\345\234>}\373\245\275/\'e\275s\373\366\274\372\271\360\275.\310\214\275|\242\325\275F\336\241<\305\363\027\276L\023+?\252Ck=\336\330\177=Qv\307<\200t\240;{\264\253\277#\310\211\275\237\213\233\2747\027\001\276hLr\275\010X\226\275Y\221\025>\027\307\231<\224\177\260\274@\265\034\275\305U\372=\327\331\243=\272bK\276a8<?\334G~<\336\324W<\364\330\313\275{\255==\2208\003=\215W7=\370\352V\275\204\232\220\276\031\267Q<\330\232Z\276]k\304\274\326\327\230;\017\347\254=\017\224\010\274q\252\300\274\265\254\002\275\252x\002\274\367\nx=\343\235\351\2748\211\224=Iq\034>D\261\327=\000\351V\275\3022\353\273\373[_>\253@d<\372.\231=J\306\303;0\016\350=\362>i=H#\325;\024>T\274\275\003\n<@k\232\276\027HQ<\364\206\005=\264\213\n\275F\'\242\271$\263\266\275H\315_=wg\240<\205\375\001>U\3324\273\251\370\\\274\323\t\324\272\226T.=O\217\324<&4\211={\343\005@\260\034\010\300\254\207\270=\336\271\005\277\377\016\227>\316\371\363>\034\247\202>\314u\336\300\235\020\007?\200pi\301\370A\245?\336G\'\277\200+\313?\223\001\237\2759\225p?\007\373\251\301\303\001\036>\211\354\221?^\335+>\336\311\306\300\2412\201\301\354Mt\301\351\362\202\300\020-\362\300#%\376?\352\355\021\276\032\303\024\271P\267\363\273#\236\224<\263\250\220<\276P1\272\025!\005;\350\215\216;\352$E<\306TE<\225t\305:S\215\007<\276{b\274\013H8;\2543\301<\367Q\233\274\\In:\300\025\353\273\022\"\004\274ap\216<\273j\024\274\305f\004\273\331\202\344<X\333R<\200|\263;\020\334f<\307\304\037\273W^\314=\326A\202=\023\3220=Ld \274\243\361\025>\322~\344=\316\272\344;\267\212\305<\271\211\312\274\313\037\016>}\204\253>\000&\235=dG\205:\000\276\016=\250h\212?\032O\217<\376\017);(\232\024;\203\327\"=\352\006\260<\352\361\020\275\002\306\260\275bZ\320\2758;\000>\336]_>Y\034\202=\t\205t>|\303!@\233\363\360>\244\234\200=\241\263:=GTM?{\265\362<\335U\325>\375\016\020\274\264\300\373\277\367\"y=\2428\332=\246\'\r\2766\235\037\274m1V?\353f.>\365|7>v\017\333:\206\240\266=LqL=\245\230\004\277\252\013t>`Q\235\277\374\236\017>\375\0067?Hl\263;\357\225\222>C\r9=\037\022h>-r\t\276g\227\324\275\224\2622\275,\n(=NWv\277\266\217\205<\010\266\300>L\246\005?g$z\274\024\004,=\304\277\251=\031\341\350>!\000T\274\027\231O>F-\246\274\31609?S\302\201\276\n\243\033\277\253)\032?\250\376\330>\347.\372<\225\210\206?k3\211=i\325M\276e\272Q\274\376\363X\275\335)8\274\355Nj>T{!\277_\237\270\275t\353\337<\024\245\277\275l\263\244\274\263\241\007\276\346\224\230=\007\024#>3H\332\275\312\242\355<K\272\260\272{\216U\275\346\363y<\233\316B>j\244\003\277\343\225\334=:\320\342\275\006U$>\030\220\236\276\266\003\304>A\273\366\274\246\276\346=\220[\367<dx\227\276\004\244\206\2752y\020\275\350\377\353=\304\253\316=A\225\360\275g\232\206<s%\352=\203\312/;\2658\037=\3372\241\277\247\264\202\275\310>N\276\036\014+\274\021V\'<\032\221w=\021RA>PN?\275h_\253<V\371?>\022(\233\276|\331\334=\003\366\367\276a\304\242>\273\204\305\274\310\r\231<^\014,\274|\240~=\223\r\206>\337\014\005>\010\224s=\275]\231\276\270z6>\376\302\254\275\205\270N>\215\351\271<\202\345`<\236\347s\274\317\321\231\275x\3513<\250>\005\275\350\305F=\266{\375\276l0w=\305\355\235\275L&\275\275\327P\314<&9\005\277\202f\323<\317\270{\275l\367\243>+\311\214=\260]\265;3\253F\274\300\324Q>>\036\030\275\363I\375>\210\201/\276\\\271\223\276i\323v>\351\014\006>\264\256\272>\265^S\276\233p\034\276\374\276\260>\207^\355\2733\033G\277+3\274\276\366\327\007?\n{j\275\237\263\371\274\2343O>T%\205=|\203c\2750?O\276\231\003\202\277EC\000>\246\276\002\274\177\035\277\276\375Z\244>\220\326H\274\333\020\201>\000\362\235\276]\\\265<n\211\304\274\350\312\005\275\235\345i\275\t\013\240\276\204tN\274\004\215\261\276BA\236\275\231B\244;\327\322\017\275\177<{\275Vd\212\276\002\376\000=\364\312\345:\203\316\211\275A\365\002<\243\002\357=\207.\204\274\020b\355="
      }
    }
  }
}
node {
  name: "sequential_1/FirstLayer/MatMul/ReadVariableOp"
  op: "Identity"
  input: "sequential_1/FirstLayer/MatMul/ReadVariableOp/resource"
  attr {
    key: "T"
    value {
      type: DT_FLOAT
    }
  }
}
node {
  name: "sequential_1/FirstLayer/MatMul"
  op: "MatMul"
  input: "FirstLayer_input"
  input: "sequential_1/FirstLayer/MatMul/ReadVariableOp"
  attr {
    key: "T"
    value {
      type: DT_FLOAT
    }
  }
  attr {
    key: "transpose_a"
    value {
      b: false
    }
  }
  attr {
    key: "transpose_b"
    value {
      b: false
    }
  }
}
node {
  name: "sequential_1/FirstLayer/BiasAdd/ReadVariableOp/resource"
  op: "Const"
  attr {
    key: "dtype"
    value {
      type: DT_FLOAT
    }
  }
  attr {
    key: "value"
    value {
      tensor {
        dtype: DT_FLOAT
        tensor_shape {
          dim {
            size: 26
          }
        }
        tensor_content: "\263\002\010?\255\013\211?|c\010\277\001R\250>\237a\357\276\264\312\"\276W\2150\277\326\320`\277\035\302\216>\245\t\223\276\247\251[?s\347|\275[\256\276>\3130\r\277\232`2\277\252L&\275\216i\326\277\030A\034\277\363\336\367\275}\224m\276\275\377\206\276.\335\370>\330\256\225\276\335\016\236\276j\352B>\224b2\277"
      }
    }
  }
}
node {
  name: "sequential_1/FirstLayer/BiasAdd/ReadVariableOp"
  op: "Identity"
  input: "sequential_1/FirstLayer/BiasAdd/ReadVariableOp/resource"
  attr {
    key: "T"
    value {
      type: DT_FLOAT
    }
  }
}
node {
  name: "sequential_1/FirstLayer/BiasAdd"
  op: "BiasAdd"
  input: "sequential_1/FirstLayer/MatMul"
  input: "sequential_1/FirstLayer/BiasAdd/ReadVariableOp"
  attr {
    key: "T"
    value {
      type: DT_FLOAT
    }
  }
  attr {
    key: "data_format"
    value {
      s: "NHWC"
    }
  }
}
node {
  name: "sequential_1/FirstLayer/Relu"
  op: "Relu"
  input: "sequential_1/FirstLayer/BiasAdd"
  attr {
    key: "T"
    value {
      type: DT_FLOAT
    }
  }
}
node {
  name: "sequential_1/dense_2/MatMul/ReadVariableOp/resource"
  op: "Const"
  attr {
    key: "dtype"
    value {
      type: DT_FLOAT
    }
  }
  attr {
    key: "value"
    value {
      tensor {
        dtype: DT_FLOAT
        tensor_shape {
          dim {
            size: 26
          }
          dim {
            size: 52
          }
        }
        tensor_content: "\354\202\276>\230]1\275\'M\016\275m\227\320\275\020\230\313\276\255\2224=\312j\313\276b\215\234>\322W\360>t\271\027\277<\347e>I\345?\2759\360\000\2757\364\\:$\376\310>O\230\223\275\243r<=\321WC>\320|\027=4\010\231>\n\270\240=\255\242\275\275\274DW>X|,\2769\367==\221\330L=x0\205\277\026\273$\276@|&>\236\367T>g\363\034>\n\376s>\274\310\021=\362\363\326\275\037c2>\256\022:=0:\321\275N\367z\276j\216\371=<\\\007?\226\262\252<p\227 \276\0055\310\275\033\030\\\277n;\024\277\016\232\246=m\3341?~1Y=\364[\213=\027\202\272=uC\221=u\301\246\274\007\025{\275\357\024E\275\313~\017\276\2341\200>9+\221>\350\252\360\2767\223\260=\367N\367=\336p\214</\260)\276\346E}\276\320\034u\275\222L\226\276z\003/?e\031\346\274_!\200>\034\021\007\300\217\306b\277!\331\326\277?\315\341>V\022\210=!,\002\277=A\205>\211\276\004\277\325fB>^\002+>?\3277>\332v\332=\317(\246>w\020l\277 c\210\277\360\346\202\277\367\230\211\276\021e\217\275\275\005\240\275\215\'\303=P\264\216<\362\367\010?:5!<8\324\320\2766\327\234>-\3171<wU\343\276\n\253O\276R\234\027>\326\225\346=\276\212|\275*\237\261\277n\245&<\352\r\275\275\256\315\037\277\326\232D=\331\230\243\273~uT<e\254u?\211\256g>\350\267\275\274grf\276\341/S\276\266\255\021\275\220\322\303>v\357\320\276\235\332\006?\210t\217>U\351\033>\"\003\004\277\303<\364\276\373h\200\276s\320\n\275\334\2415\275\375-\233\276\267hK>@\"\022\275[\214\353=\302\215\201=\302\253\224\275%\307\203;\266\253\n>eLk\276#\2758\276V\347\246\276\224s\341\275i\364\335\276X\212\213\276\301\261G\275\013\207[>\004\225\021?\021\320\253=x*\312\2752g\311>:\352\006\277\3349\274=(\361\023\275\333\025b>N\261)\276[T\024?\343\357\002\276\252t\004=\340\375k\277\351\036\'\2765{s\275Ty\\>\313\003\201=\311\235\321>&\315\305\276:\277\241\274z\241\302=\341v\306\275\254\357x>\013k\226>`\330\007\276V\362\343\275\241\007\322\274h\332\355=\256L\361;\246>\325\275\377\354\256\276\275\202\253\274\033\267\321<^pd>\343\021i>V\347\014\275\315n\371<4\212\344\276z-\035=d\351(=\252\335\356\275]_u=\031d\031>\335\214\223=\273<.\277yw\027>R;\320\275\243F\211\277\3051\340;m\364\275\276\256~0\275\310$\246\276\336$\021\277\371\375;\275\307&\234\277(\313\335=u\321`=\255\256\274=\370\317\253\275\306RJ\276dy\353=0\371\213\276\337\264\221\276\t\307G\273\006\323\306\276U\372\225\2756\026(>\240\211\202\275O\256=>3\331\307\276\310\201\365\277-\364\235>9\022\000>\347\026\267\276\377\260\257=\271\327\021>\037\253+\275\027\235S>\001\356\326\276\276\272\\>\266\275\n\275\230\235\265>\310(\274=\217\362\362\275\177r\232\276d\344M\276\357\342r>\0030\264>W\350\273><\256\274>\270c}?\021\334\265;\332\264\204>\007>@\277\322#\212\275\224\254\217\276K\261\361>O\244\213=\363\037\215>\032[4>tc\034?+c]\276\215?T=\021#g\276H\363,>\317&^\277o\277\312>\226K\275>\016dh\276\270[\303>\254<\t\277\234\2742=\250\0312=\240T\252>\254\230\030\277\377\353\'?j\034V=\210\202\246> \033\275\275m\301\243=\345\317V\276\nb\017\277\356\253\251>\362\366\023\277\006\221^\275\323\210\2319j\nQ>\003\005\316\275uW\325=\220\304\030\276hy\276>S\ty\276\315=\327\2769\350c\276\274\314k\274m]n\276\362-\241\276(\331\273\276\243\224\017=\366\360\340\276\027\221c>\237\231\320;\215-U>2L\206\277gd\031?s\003\266=\377\213\276\276V[f=\260O\216\276l\311m>@\325m\277\244\3413>\203V\273>\360\214\242>\026\\\224<\343\314\"\277+a\277\275\017\265\350\274j\032\332<\232\002\247\276\017v\022>L\031\270<\363v\276\276p\311\331<\360G\365\275\364`\214=\025\300\351\2761\345\264\275\324:\240=3\"\337\277B\267R\275\265?M\276nd\363\276\347/\375\275\035\333\323<n\010>\274\267*\310\277\330d\207>\3346\310\275\345+\002=\303[\037\275\232q\337<G\316\276=\316\210\305\277\301 \014\300+E\023>\323Y\322=\324tj\274|\"\240=~\273\035\276\250\244\030=\3119\301\274\267\215\021=\030J\033=\n\336\026\277T\255<\273\363\017/\273\264\355\024<\315\226\260>b\247\320\275\340\035w=}T2<z\032\336=h \265=\354\302)\276\254=J=\343\267y<\217\264+\276\351Y\036\300<\353^\275{\357_=\024\300!\277\037uU>\013\027\354=\221\217\272=\216h\017<AB\237\275\247\304o=%\216u;\247[\301\274(\036P=\200\262{\275\001\0219\274\032\376;=\340\272|\2759\323\212\276\215`\201>\214\037\343>\320p\207\276`\206\307>Q\310\214\274\004L\013\275\020\344\034=\305\361\252\275\352\300 =\252\223\321>\273\332\245\275\263:\'?+SV\276\021\243a?\267\357\000?\r\213\356\275\330\374n\2761\370\332\276\373\021e>~\240\213>V\023\376<\375\357\233\275\311\360\257\276\213\307\'\277\273\203\367\276\202\230\010?\035\311\312>\361\325\000\2774\024\236\276\r\335\351=\353;p>\245>\000?[8^\275\335\204\017?6V\002=\243\262j\276Vf\340\276Z\225\311\276\357F\350>\362\241B\276\267R;?j\210\340>\315E\305\275\324`\247>\211d\235=R\032,?\302&\234\276\203\261K\277\233\004\373\275\014H\242:\253\021\204?\313\304f=\376\336B?\270\376\032\277\246\237\326\275\314\0323?\257(_\274\312\333\215=\\ m\277J\236/<\007\215m\277\3402\232=Sgx\276\344\351\205=\307\247\211=\021T\240>\340\221\232>\343\202\307\277\205\1776=,\'\321\276\222\032\004\276\362\323x\276\227\316\213\277\250\r\033?V\366S\276\351\036y>\240\317\007?E\022\315\276Y\000\276>13\177\277\\_\261>\260\341\\\276\n\323-\277\177\005V>\336\344\347\274 1 \276.\345\260\276\357\256\354\275\217|\356\274\017\223\n\276f\002H<\264\211z\276h\326\306\275R}\300>K\345\027>\334u\000>%E\235>\206\271h>q\177\204=\247\244x>Og7\277\330\014\005\276g\023\246=\355q\324\276,\353\025?\362\321\206=\242\275y>\370\345[>SS \277\217\212o\276\003\375\365<\324\330/\276\007\276}\274Y\374\247\2769\365]\276b\200\372>w\025%\276K\300~=\307\364i>\272\325\340\274\013\007^?\341\301\031>\315\263\252?\013\374\372\276\334\3778\274\346\274Y\276\357\232\310\276\374\217\327\274\031@J>\250\002\\?@\036\351=\214d>\276^;A>\210\217\n?l.\303\273Y\014\334\276\000<\177=J\223\324\276\0344\356\274\204L\r\276\251\201(\277\203\205\006>VU\027?n\224\204\276\217\367\345>\216W\026<\'N\302=\336\275\377>!g$?\263|\222\277\337\242\347>\324X\306>]&\353\275\330<u\277\212\351\352\276\250\256q\2750\3146\276\235ky\276\346tG\276W\377M\276\201L\201\276\031Fd=\\C/>\267V\025<\005r!?\366:\313\276 \320\r\276\207$\276\276\003&\025>\244\347\017\277\035\010\203>`\232\342<\325\340\270>M\374\340\273g#\013>\265\032\371\275L\377\023>\323\210\271>\"vH>\330;2>\215W&\276\331#)?\331`+\275\374\030\010?\250Y\266\276(:\'>\260\255*\276\313\361\214\274\374\315\345\275\334\266\037=\024/\311\275\024;\305>\361\025\307>\246\013\001\276\332\317\323>\327\021\221>\325\364\203\276\177\326+=\275\211\212>M\237\336\274\371\017\202\275aG\270=Mn\376\276\213\300;\277_\367!>\013\365&\274V\345\302<\253\337\370>g\261\226<o4\313=\211~Y\277x\204g>\333\024~>\371ar\274P\371\334\274\300!\214>D{\352\2742\324o\276\320\'_\277\007\246\300<,N/\276\275\022\206>\006\367o\276,\344{>\273\221\">F\302\020\276\211\225\255\273\357\206\271\275\320\200l=\217]\035>&N\361;\240\033\030\276\"\266\202\276\2562\001\276A\231\031\274.\245\021>\371\022\240>\\\355\302>\3634>\276\333F\267=\316\236\004\275\301jG\274c\203\267\276\350\306-\275\321\022q\275q\035\203<\207\034y\276RX\027>E\t\275\275\032U8\275bNo\276\277v\317\275Z\003t>\263\353\010\276B\253\023?\256D\\\274\364\000:\275\314\246\340=\355\262\235\275\320\t\235>\027\230\234\277y\n\017\276\233\214\332=\366nQ\274\214\324\234\276\231\303\010=2qE?\367\035v\275r\302b=m\023}\276\270\325 \277\367\211Y>\376! \275\373aN\275\302\013\021\276\207e\037\300\244\323\233=\025\231\355=e\362J<I*\221>\000\244\344\276\021\254=>P]\375\2756\243\230>cg\274>jZ*\276\337\332\370=\325q\024?<\375\254\276\252\370\322=Y\232\355=\003\3164\276!\330\242=\232\314\267\277\330\032\374\275bWV>\230Y\253=n\034\207\276\2171\206<\n\'+>\333\230z:7\313\261\276V\276\255\275\303k\263\276\266U\010\277=\0258>\370\021\260>x\252\234<\372\336\244>\332\243@\276kPI\275\031z\316>\034X@<{S\326\275\373\r{>w\007\207\275p/V>j\223>\275\235\023\315\276P\204R\276\220\326\301\275\220\241Q\276V\363\320\275\331\222P\2762\000\306\275\035\242I?\271\365 \273u\261E?\325- \276\321\016\212\2766+\002\277\001T\003\276d\267&\277U\242\"\277UV\234\276\327B\243>.\361\025?\037\323\207>\341\324\003\276\0377\262\276\337#\263>=4\306>s\227\250\276\225\002\220>Y+D=Bi:?\211\227\322>\301g\014\277W{v\275\217U\254\276Z\326M\277~\016\'<Jb#=\356\004\323=\322\0019<\255\340\002\275tb\300>\304\n\t>\032\343\375>\341\227\367>4\017]\277F#\306=$\231C>iH\311\277\263\026>\275\332_\277\276.\236V>\003]&>\0167t>\252\202<;\207\004$>Z\235\335\274\366`\214=\025\007\231\276!\253V>02\367<\371u\234<\025\232\315\276{\222\242>\031k\215\2757\304Z<Z\313/\276\371\254\231\275E}\315\277\360\250\226\275\014\216\223<\361\276\243>\222\306o\276\352\032\262>\3329\266\276F\236\023?\177\322\234\276\245h;\275V\013\312\275\354\370v>\025H\320=\307x9=\360\324Y>\035\216>=\216?#\276S\3049=\257\233\032>\037#l>\030x\215\276\'\207V\274\035\332K<\317\2219\276\367e\022\277\232\220\">\342\350O=\375y\375<\336-\022\2772;o\275{\026m>\331K\232\276\372\271\330\274\252\\/\276\230h;@qQ\014\300d\353\242?\334(1\300\342\362\200\300\376\375\212?e\006K\300\213vh\277\277x7?\177\253\326?\201\354\334>\356\333o@\311]n\277g\240\275>\310\037\n?\360[^\300\310v\014@\254s}?,\252\375\277n\215\211\275\204\316\377\277\3529h\276X\026*?\227\217\326\277\314\033Z\276\253X\035\300(\222Y\300\202\253m?Zd\371?\203\031\007\3009`G>\017\201\224@\233\240\265?\374K\313>>`\004\276\253`z\276\212\231\360?\246P\016>\376\324\216?\251\343\337?\326\200V\300\301*0@\335\035(@\275P>?\255\234\237?F\371\037\276\343\024.@K\376\220\276\316t\034@\202e\034\300\260\354\000\300\232U\t\277\033R\245\275\236\022F\275G\305\263> \351\t\276\274\235\350=\211+\263=\345\3107?}H\211>\020\344\270\277v4Q\275\215-M>2\352M\277)\376\000?\246`y>@\365\311<\206\325\t?\310\245\267>\231\374\002>\204\323\267=3\030W?%\272\023\276\201\363\034\276\315 \021\277@\201\200\276r\260\243=\342b\022\277>\016 \275\327c\001?3\277\242\277\333e\010\276\3324\223\275\340b\"\277\020h\231\277\243\345\027\277\201\2157=Fh\224\277\035\267\253\276\3259r\275\374\346\204>aMo>\022\233\362\2768\237\361\276p\216a\277\240z\207\277\222\333\364=\213\261\241\300aq\000?\320)\230\276\356\303\212>\034\236\341\276q8\324\277D,\333\274\230\220{\274\022\303\213?\256\242\026\277\374\036\014>\374o\340=\177{\347\276\256N\354\276\244\367\235>\336\202\214?hR\202?\373e\370\276\326(\003>\370\375\242=\031S\333\276\234hp\275[\203c>v\r\023\2769\334v\276\330u\020?\347 \006\276\310a8\276\013\362N\275b\210\035=Bk\247\276i\344*>\322\200S\276\010\372\364;v\344\t>\212E=\276\214\372`>\017-\307\276\233\202\201\275\347;\313\276\232\332\250?\246\221\031?\272JC\275\261\352\344>\n\322m>\317\360\323\276\034\302\264=\256\321\375\275g\376\277>\236*W\274o\344\001\276\022\033\031\276\340\014\227\277.\326\223\275\200\314\344>\\o\276\276b\362u>j\213\274>\345\025\277\276\342s\037>\177\2175\275\324\252\321;\017\260\036>\250u\233=m\236k>m\254\331=\r\265v\276\347\375r\276ZB\201>\215\022\020?\375\330%>p\037K\276\033\225j\277\246{[>O9\325>\207\356\007>R\242\270\276<\324A\276\224NJ?\340\216\024?J(\346\276\022\224B?\362\014$=\202\340\033\276\304\025\001?2 \203>!\177D\276L\354\237\276B\347/?\325\336\230\277\344\347\206\275\262\324U\276\\X\010>\360\"\326>\361d^>#\375D\275n\337&\277\230*\327=\235U\336\276\234H\332=(\336\304>7\006\352\275EM\231\276\311\270R\276\223\001\307\275\'\222\220>5\016D>\255\200\211>\355\347\001\277\017\324\267>D\217\247\275SZ\366=\361)\200\275w\030j\276\367\0255\276\221UX\274\216Y\277\276\367\336\250\276\313c~\275\320\355\377<6G\007?4`\254\275\037\232\005\276\245\362\251\274U\000\223>\266\264\025\277Px\304\276\337\362\206\275\005\331#>\003\\\256\276\023AY\277\203^ >3-\031\276\276\272\253\275\376`\300\276\022\276y=\313\222S>\024\013\347\2753C\343>]\202\263=B\025w=\032\332\303=e\254\276;E~#=z?\025?\013\237\342>\376\370\256\275\244\324\334=B\230\354=\345[\205\275\237I\226\275y\331\356=\307v&>\246\241->\350\200\030\277\014\2029>\\\036\226=\347\036\037\276q\234\032>\364f\233<\355\270\203<\304\321\303\277\364\262\307\276 \206-?\350O\030\274,\272\r?J\236\252>\206O\264\276\022\2225>L\325\003\277V\354\313>\367\003\033?\"\200\220>\216\216\217>\032\313t=\240u\253>\343X&?;]\376>\350\374\236\274\211YJ?Tc6?@\304F\277\371\352\204\274_D\201>u\267I\277\251\256\334\277Xr\272\276\340v\237\276\243\000\351=\256m\221=\236\177\221\276\347\220W?|4\373>\204\270\020\276A+\352=&\337\315>\037F\001=p\2358\277]\002W<\342\241\027?Mk<\277\345\203E\276\224o\325>j\254G>q\263Y?\014\200]>\270\245M>\220\013\020\276\277\354\242\276H\331\026?Q\301\354=\247\353#\277\211L\317<\377Y~\276>\271\376<\203\310\001>\311>\337\276\356J\250\276\245\033t>i\257\335\276\331\334\226<K$C>\r:\240>\342\311I>Q\rO\277INK\276S\261\232>`E\237\277h(u\276mg+\277\216\232\345\276\217\243\034?G\313\355\274\0232\026?\204bn\277\312z\265\276\372\243R?\271\t\331\275\245\325\342>\337y:\277\003u\026=|\010\260=LoE\277\\\350T\276B\3376\276\026\326\027\277kW\321>\334\013\320=\376.\326=h\274\005\277)t^\274\340\262\324\276\376\366\265\276\027+`\274%.\002?\256\325D\277\023\313#\276\337\361\310>\221\316\020>eu\267\275\014S\312\276\3317\001>\231\352T\275\264\225,?\353\245\312;\227L\316=\2068\203>xX\214\275Y\227\024\277q\336j\275\027\210&?#V\331=\334\240T\276\000Vf=t\325c\277\220\026\245\276\357\344W==\320\327=\001\376\332=\352\035 \277\362\341\324>\010c\244>\023:x\276\236m\366=>q\030>\025\210\255\276\367\345\202>%\211q>}\244\247\276@8{\276\355\301\323\276\204\003F<c\031\371\276\255\245F\276\367\320\326>\2505\324=\313\366\220=\307\340\013>d~\r<$\354\247=&X\255>G\2165\276\220\310\332=\327\031v\276BT^\277\367\366X\277\233(\"\2740_\337=\274\227w>\336\006\017\276\2773`\275\372:\373;sj,\276\t\031Y<z\017\010\276K\304<\276H|\013\276\255E}>A\227\214\276\030\261#=*\022\222<\221\251X=\300\270\360\275L\320\007\275\324-\033\277w(\312\2758\032?\277E\035\211?xc\024=#\210\301>\257\352\307=\270[\306\276\002*5?\271\300h\276\362^\244=VB\215=9\244\226\276Z%\307=\300\014\211>\235F\017>\2646\255>\2430&\275\r\216\004>\220J\350>\344\014\030>\374N\265\276~\313j\276\343\035\226\276\370\325\352=\235\035\256\276w]\334;\202\252\350\275\002\033Z\275\rF\367\274n\314\216=\257\322M\276O\272\000?\204\350\267\276\027\005_>S`\272<>X\236>\035\237S>\242\t\204>\215\330\332>\251~R\276If\274\274\367\206\277\275\2452v\275B\002\002>\357\330u>%\220f=G\023\032\276\365b\203=\"\331\246=\273\2052>\340 \343;\224\002d\276>nu>\267Xt>By\256\276\2666\374\276</\037\276,\276\316\275\345\331\216\276\260\340\213\276I\030)\276\211\023M\2762v\220=\355\327\361\272T\367\244>\357g\345\275\005\231\215\276:\235\301>\333h\361>u\221l\275\234\021\225\275r\226\001>z\346\211\276P\261\021?7\200\330\274l\272\366\276\361\323\320>\342\315\227\275\210\307\342\275\376\367Z\275\251L\240>\346\025^\275\016~!\277q@\222=\312\302i<\301\021\316\276[\241(\2750A\265=Wo:\276\024Q\275\276f8\245>\nqu\277\004\210\031\277\215>\320\2768aH>\224!\301\276b\347\246\2762\257\006?\202(\261\276\306\342$\277\315\371\034?\001\363\210>\275\336}=\331\255\340>T\334\323<\021@\302\276\222\0018\276\027\252\247>\324&\263>m\360\017=I\360\035?e\345\371\276\201\205\257\276/k\202\276\2700\375\276?{\212<3\346\336\275\222\334\341\277\274\020\205>!\266\253\276U/\336>\272\351\262\276\222B\244>^\370\363\276*\014G=yT\266\274\231\212\356>\2031R=\251Z\357>\\\370#=\260\255P?\306\030\202\276\341\356\037\276H\323I\272?;2\277;\0257\277\232\n\266\276\324\205F>\206vb>\237\346~>8*u=\334A)\277\341b\"\276xyB\276}\230\250<h\325\330\2778\"\020\276\362\307K\275c\330V\300"
      }
    }
  }
}
node {
  name: "sequential_1/dense_2/MatMul/ReadVariableOp"
  op: "Identity"
  input: "sequential_1/dense_2/MatMul/ReadVariableOp/resource"
  attr {
    key: "T"
    value {
      type: DT_FLOAT
    }
  }
}
node {
  name: "sequential_1/dense_2/MatMul"
  op: "MatMul"
  input: "sequential_1/FirstLayer/Relu"
  input: "sequential_1/dense_2/MatMul/ReadVariableOp"
  attr {
    key: "T"
    value {
      type: DT_FLOAT
    }
  }
  attr {
    key: "transpose_a"
    value {
      b: false
    }
  }
  attr {
    key: "transpose_b"
    value {
      b: false
    }
  }
}
node {
  name: "sequential_1/dense_2/BiasAdd/ReadVariableOp/resource"
  op: "Const"
  attr {
    key: "dtype"
    value {
      type: DT_FLOAT
    }
  }
  attr {
    key: "value"
    value {
      tensor {
        dtype: DT_FLOAT
        tensor_shape {
          dim {
            size: 52
          }
        }
        tensor_content: "\005+\001\277\370-\327\276\247\014)?O!\020\277m\014O\275\267\220Y?\364\005\270>\013r&?\373\251I\300\001o\253\276w\301s>\340,5\276\361?!\276\025\007\031\277\033\372\336\276\204j%\276*C\274>VQU=\343E\273\276\"w\331\275\323/%\276\037i\\>5\270\204\277\212M\344>\220\232\215>\364\2741\276\315\033T>\343\221[=U\037-\276Y\367=\276I;X>\314\351P?\033M\022\277\322c:\277\270\360\200>~\372G?\337\373j?3\335o>p\014)\276\035\005\277>\241\034\270\276yt.?8X,\277Y\030\262\276~>\332>\034\360\006\277}(\010>*\354\031>1v<?Os\t?A\321\361>\200\310d\276"
      }
    }
  }
}
node {
  name: "sequential_1/dense_2/BiasAdd/ReadVariableOp"
  op: "Identity"
  input: "sequential_1/dense_2/BiasAdd/ReadVariableOp/resource"
  attr {
    key: "T"
    value {
      type: DT_FLOAT
    }
  }
}
node {
  name: "sequential_1/dense_2/BiasAdd"
  op: "BiasAdd"
  input: "sequential_1/dense_2/MatMul"
  input: "sequential_1/dense_2/BiasAdd/ReadVariableOp"
  attr {
    key: "T"
    value {
      type: DT_FLOAT
    }
  }
  attr {
    key: "data_format"
    value {
      s: "NHWC"
    }
  }
}
node {
  name: "sequential_1/dense_2/Relu"
  op: "Relu"
  input: "sequential_1/dense_2/BiasAdd"
  attr {
    key: "T"
    value {
      type: DT_FLOAT
    }
  }
}
node {
  name: "sequential_1/dense_3/MatMul/ReadVariableOp/resource"
  op: "Const"
  attr {
    key: "dtype"
    value {
      type: DT_FLOAT
    }
  }
  attr {
    key: "value"
    value {
      tensor {
        dtype: DT_FLOAT
        tensor_shape {
          dim {
            size: 52
          }
          dim {
            size: 26
          }
        }
        tensor_content: "N\253&=\203\r\245=\'\000\330>J\276\232\276\311@&\276\311\316I\277\367\335\352=E\376\334>\022\342\233\276\3274h\277b\376,>F\030\252\275\356\245B?\371\"\340>M\026\213\277\177\237\350\276\341X%>\244\230\241\276\305\t\035?D`\016>\004\016\034\277o\307A>\370\370\247=X\211\034\277\026\307/\277R\272c\274\013\335\214\276\274\360\234\276\016\345\200>\257\214\022>y\252\237?\332\375\035\276(\271\362>2\223\251?~\202\025\277%\274\276\276w%\301\2757\320u\276P\205\350>\341\2121\275\005\260i>L\264`?CS;?\247+\336\275\225H\214\276\324Js\275\212z\000?\316%J\277\322\356\360>\233\336\231>\337\340\341\276Z\317m?\316w\340>\236\263>>\314\3064\276Wq\"=\245\251\020>\361\310\257\274\2424\324\275l\017d?z\027&\276\221\201\366><\224\241\275\237\013%?@\200\237\277D\204\336\276P{\315\276\335\306\020?\"\370D\277\207\036\366>\224\003\327=}\025\373\276Q\361\217\276\026\031\320\276\331\230H\277i\013\030\277\251J\306\275\377A\316\275(\307N>w\277\237\276\324+$>\034\275\315\275qvL\277\235\021\211\276\004\300;>z\205\023=\310\'\r\276\257Y\337\275\033\213 \276\313\207\023>M\\\000\276eD\361\276>\n#\275\360\245\276>\204\342\254>\350bX\276E\270\274\276\266b\007\276L.\377=\205\360\002\277\017D0>\026b\267\275\305\365q>\301;\315>S:\222>\276Q\221\275\304\240\221\274H\324%>\013\376\005=\"\236\233\277\266\030?\276\300\241\271>\304e\367\275\226h\307=\tA\036\276\240\313\241\276\nJ\232\276|\300\230\276\200\231\304\275\253H\261\276\325\035\305=\310\214y\276\255\001o\276m\313(>SB\203=\rq\375\276J\210\250\276$dm\276\360\227K=KY\367\276_\'\230\275\275P\363=\n\2204?\0231\357>G\003\353=4N6>\036\306\024=\307\333\363\274\036\211\005\277\034-\026\276\033.\327\274/\000V\277\206\023\022\2779\244\216\276\020\020\277\276\270\304s>\203\371k\277\303\n\251>\235\271\342=\026\273S>\331\3368?RK\256\277\307FZ\276lE\247\276\265\201\t\277\332\363\222\276Uw\241\276\3515\'>\237a\016?\3525b\275\342pa>\342\247S\276\255y\035\277\260\357\322\276\217\361\014\277\360OW\277+0\270\273\313\023\021\2776\261\325=\302t\312=R\2369\274\274nn\276\265\010\237>\001\030\234>\342\351\311\275\216\004\266>\306\'\236>\265\320!>\277\026J>\035\343\213\276k\275\266\277x\030\002\276\013[`\277z+\326>\265F\003\276\310F\203\276|V\240=YE\001?H\2301\277\372\356\007\276\3067\r?9\034D\2779\004\252\276\034\r\241\276\221M\243\277\320\031\023?\224\227h>\014\357?\277\215\333-\275m/\023\275m\226\314>\336\003\252>\216K\214\276\3367r>B\267\356>2\2460\274\265+\234\276g\207_\277\033\270\030\277\272\375q\276!\306]\277~B\226\277,\242t\276\321\374\206?\251\233\r\300h\232Y\277\276E\253\276\027^\013\277\353\237\035=X\323\">\204\312\246\274\030\271\241\273\350=\207\277I\321:\277\0177\014\277\000$1\277\310!\313\276\324\215b>\030\232x\277_\204\357=\200\003\326>\244yV\300QC\370\277\247ui\277\365\343\221>H]\262>\252\303\310>\333\255\240>2\236\240\277\333\214\343>\300o\262\274\227\221>>\033\357r\276\023+\301\276\246\002\025\276_\207\244\276i\203\245\277_\353\260>y\023\204\275\307\250\305\276K3^\276\253\323\007\277\323\3066\277q\244\005?uA\r?>\025\275\276t\202\212\276`!\205\276\243\322\n\277\307_\350<\213\362\341=a\3720\276C\325\266;(\213\343\275F|\336\276\016\023I>\371b\327>\344\374\241\276\0226\251>\375\007\321=\233\344\031\276\230\014\373>\237\373\002\277o:M>\345\325\333>H6\257\276g\013i?b\247 \277\330\266\203\277\227\030\312=\221\301\222>\200\371X>@\240\013\2779\202\316>\032\351\311>\245\334\260\275&\317+>\027\020\211<\277G\021>m\332e\276\007\3756\276\206.\264>L0\251<\277\027\267>s[\214<\'X>>\330&L\276\344\3015\276\312\263\241>\250\253\'?f\0172>\213\016\004\277]\031\006>\0142\303\275X\357\023>Z\330\311>\324\233\205=mK\344>\003k\257\275C\231\030>\311i%>\r\211\245\272\342l\357>\2330\252\276\361\253\360\275\312\264=>\256\274\243>\005\374\026\275Bj|\275V\266\321\275\257P8>\352p\263>&*^\2765\272\254\276u\313\006?`R\220\277K\325\003?\223S\271>n\335t\276\367h\247=d\352\007\276u?\304\277b\246\233>\033\227\226>\244\304\245>BQ,?\211p[<kT\322>\'\271\205>\177\300\003\277a\261\247\276\273*F=\311X\002\277\203\205\354\276\305\262L?\276\252\253\276\263\'\250=\255\"#\276\271\007\237\276\277\264\">9\275\277\276\231z\333\276\273P\347\276\201\377\227\2762j\345<1a\373\276\271]\260\277r\2467\277\336g\310\276\277\262\213\276:\356\205>\355b\215>\304wU?\226\'\010?\320\352\334>\237J\010=\304\354\017\277\354$\036>!\216y\276n|\002\277 \276\355\275\005\'\203\275\253\205\377=u!a>\312\344\346\275\272<5<pf\323\276f\342\006>\342T\213>\266f\254\276\212\032\241>\n\023\024>b*\200\277\271t\217\275\316\215\346\275y`\275=\260\260\247\276\317\361\366>7\271\245>\220\367\240>;\'\207>\247 \200>\205\242r?\317\266\003\276a}\032?ej\266>\323\374-\277\3650\\\276%&\007\277\220\303\032\277,\003\276\272\272\234\372\276c\003\310>\251\331i;/\220\026\277:%\014\277h\022\033\277\317\271\313>qY\320?D\323\236>\212\202\203>\'2\353;\264_\203?\2573-\276O~B\277\023\262I<fN_?\312:\316\276`\027\">\005s\324>\233\333\323>f\355h\277\233\036x\276\271\321B=|_\035\277(e\324=\243\0341\275\265Y\246\276#(E\276|\217\316\276F\373\341>\"\377r?\213^\236\275!\320\017>v`\237\276\211\227\016\277\214\353c?\205\353\211\275\002\304T\277\331\323e>f\033\233\276;\265d\276#\205\311\276\221\014\001\277\372\352\350=3Ca\2760g\245=\271T ?\261\242\200=\356\313\036=A\235\037=+\331\000\276\332\244\023\276\006\205\031\276f\365\"\276\315j>\277\226\332z\276\265Z\261>\340B\345\276\256ZZ\276\263\306\253\275\n\307|\276\006\021\227>\261\233B\277\177\3173>\227@ \277!\216\334;\276\204\315;T\271U\276\257\242\222\275\027m\330<\350\356\320\276\226\332\000\277R\013\264>\2210\373>\374\217J?I\265S\276\200\016\030<\037\256\201\276[\224W>\306\235\365=\021\373\035=^\305\236>\202\030\031\275Q\350:?h\335\266\276\221t\177\276\215\215\263=ak:>\260-i\276E\240\307\276\257d\306>\216=O8\246\2368?\023\004\372>\024\324s>\264\221\313\276\205\266(>\311\346\301\276\261\273\210>\021\332\226\277\271c\244\275\227\347\231>Z\2710>E\305\214\276\204\307\300>\24404\277\364q[=N!\323\275\023{g\276\331|\277>Fn\002=7\270\376\276\235\005\002\277m+\311\276 \227w>\375FA\277\376\321\247=\020\257l>\036\2709\274\373]\">\267\212\001> \350?\277W\204B\273\023\274\230\277WXo\276\242\032\034?\215\321<\276\254\234\213>\262\264\033?!\212d;9\007M?\0333\222\277\273*i\275\003/I?\306\315\340\276\207\261\327\276\\\335\007\277\2671\232\277\230x\"\277\275\311\000>L\241\315=\332\306\301\276\236a\371> \371`?\353$\213>V\326\017>\351\241\303>0\026\245\275\320C\243>\260t0>\254^\203\276l\336\315\276\330+#\277\034\027\365\275\004\025\r?\362\235\356\274Z\377\017?\210a\255=\247\n\326\276K\206\005\275z}\230>U3#\277\217p\027>\364=\030>t\350\255\276\264\nb\276\370\236\352=\373\014\004\275B\221\035\276\177C\202>\312w\202\276=m\373=\242\231\276>\372\246\225\276\235L\013?+\204\236\276\237\017o\276\025a\226\277\025${\277\3031N\275\333e\320=\216\022\315\275F\367\214=\343\362\352\276\223\357\236>\201\004\"\276h\345\261\276\352S\334\276\363\t\030?s\201\373\275;|\033\276\031\337\203\276\376\234\332>\367\222\267>\314KD\277Y\002\230\275\010\272\236\276\000<\326>\006/\330\275\316\301:>\363\227\245>]m\245>[\315\317\277\206\313\242=\375\367.?\277\326\264\276\220/\303\276\222HE\276\033\316\376=\201\000\342\277b,\372\276\214\247\037\2771\025\343>HK\275\275t\3574>\260~a\275\215\322\246\276@\2473?<\211\204\276\337\337\265>j\2444\276\202\331:=\024Q\372>\222\233\014>\010\007F>\242;\000\277d\210\024>1bZ\276\201\276\236\275\'\373\333\276\271\366l\276%\2579>\325\342\013?\375\342B\276d8\020\276\371\235p\277\251X\223>\341^u>vQ5\276\235\224\224\276A\366\271\274\036y\245\276=\007p\276\032,\003\277\225\2671\274\177\327$\2767\241\231>\226\360\267>\316\362\216\276\315\017\n\277X\272\010>\270\250\263>\335^\007\2768\257\316\275-[\037>\266\201\347\275x\326\264;\325i7\276\017x\200\276\240\245\211\274\367\301\272\275\014I\236>\347\353\034\276\340\212\202=\363\237\363\276o\335\n=\366a\026\276\305\000v>\222s\027?\026\353u>\226\013\302\275\227\035)?J\017\000\277>\357\270\276\305\311|\276&$o>aa+\276\367\321\032\277V:\003=\027\260\002\277M>\234==v\361=!\305\004\277\271\'6?\353\305\306>\215\016\204\276\276\014\027?\362\t\325\276P\310\213\275?\017\213>\226\310$\275\375\242\027>\n\027\347\2758\263\223\276N;r\276tF?\276\227\300\340=\221Xu\274\243\276\224>\251\017\027?\2709P\276P\277p\277\316\245\030=\227\000\273\276t\345\274\274#&\007>c\310r?\010\245\262<\026\317\300\276a\247h?\240qa>Rl\226=,KH>\310\007\013\277t\257\033?\267\365\035\277\344\255\261\276\254 \246\277\361C\274\275\271\371\271>\204\266\253=\'\220s\277\244\":?\004d\212>]\2073\2770\002\'\277\355[\256\277\345\351D\275\327YE>s?\031>Z\372<>\263\270\314>W\370P\274\334t\202\277\225\332\r>i\032\311\276\001bE\276\224\322X<\312\013\247\276\013\013\020?\361\264\233\274\305\255\252\276\233~\373;\241\327\213=\0248\207>\177\311\030>&N\224=\rCf>\025!\265>$\006\312\275N\t\225\276\0217\004\277=\301\270=\256U\216\276\n\364\016\276\360\245<>\214\247u\275\305\005\"?\031~\023>u\3752>^H\365>c\336\365=\006\216\\>\331l/\275\331f\324>\357\316\333=%\315\036\277\375 \262\276Q\021B?\026\273\257\277g\320\235\276\354\"V>\252\237\377=F\230i\275f-Z\276x\202p?\345{\227=_4\335>\324@\365>\253\367\233\276<\331\321=\010/)\274\032\235\000?{\300\225><\210\"\277\2676u\277\224Xs\276\321\210L>\177\356x\275\010\240\204\276\321F\370>\031\240\010?1;\212\277\361\"h\276C\240+?\034\2016\277N\302\t?\376\030\237>\323\n\210\276u\261\021\2775R\014>\342j\370\273)\312\340\276\242\3302>D\3247>p\272\360=\267\003\010>\235\022{\277\336]\327=\206\262s<\002\325r>8G\201=\033W\306\276\022\350`\274\237\023\000?(\321\030\276\375\264\305=\255WD>\267\327\025\276\014\320-?*[\203=N\325R\277\327Y\255:\270\251\033\275\007\3163\277\233\212\322\275\226\000\265=\342W\217\276\372\313\001>\345\366<\273\347\217\275\276\370q\024\277yp!\300\332\305\205\274\221\273\006\277e\241Y?<H\345\276\024\314Q?\373ka\276:\027\235\277V\354\224=\202Z\216\276\r\023>\277w}(?\301\316\014\277l\233\204?\302ja?\001\361\302=\205\264:>\006n\026?\207\361r\277\245\215\223?\245\223d\300\324\343\367=\235]K?d\031R\277\247\031H?\333\301h\275\307\210u>\026\272D>\334\304\217>\213X6?9.\265\277p\352\\\276:\273N\276J\020\363\276:\203\221\276*c\201\275\020c\233\275\332\231s\276$$\321\276`\370\022\277\214\014B?\tA}\277\315\202&?h\0136\276\325z\313\274\010\026\302?\315\263\226>\024\307\217\277\336\177\277>\000s]>\222\025\266>X\220\246\275y\367H=\327\317f\277/\n\313\275{EK\277(\376\212>L\320^>\330\273)\276\241\276\000?\374\343>?\350\216\376<\246\260M?\346X\234\276\316\246\271\276\210\364h?\371\273\307=\007D\215\276\206\016\327=\375\3029\277\351\335\020\277\030r,\277(\354r=\374]\334\275\347U\353>\363\345\323>\013\236U\276\361\225\347\275\271\273\032>\373j\026\275\311#\272>\326\3061>0\t\032\277%v\260\276\331\253+>^#\263=\034\007\207>b\203\322\275\006z\230\276\241cP>T!@\2756\263\230<\026N\227>\304\331x\277\272\213\001>m\304\261=\220\2147=\3049\230\276kY\025\275!y\022\276\327\262\250=B\\\324>\253\211\316\274\215\0003\2760\243\274=\265 j\274Ux\030\276r;\223>\234\226m\276{_\365\276\023{9\277\305\3574?\355\330\023>\203(\326=&\244\334>\362\244\223=\260\210\030?\222\276#\276W\300\211<\262\226\336=\231w\n?\233\250)\276J\2735?\377\'\017>\232\r[>\366\271?\276\354\0079\277\222i5\276\254I\227\276Yb\003>\032\375\306\276|\312\227\275\300\002\362\275\037\345\t\277\306`\034\277)7\020?\336\035\031=H^\304\276\237\220\237\272\222\326\274=gf\267<`\257\230>\210\017\256>\023\310\006?T\224\226<W7F>0\266C\277?\366!\277\261\"\230=\301c\262>\351\306t=\362\223o>\256a\370>lI\233\275P\3646=\230\207\213\276\215{\346\275\275[\332>cB\341\274`\247Y>K74>\033\203j>\310\365y>\355\224*\277\211\346e\277\356x8=\200\216:\276\223\034\027\276]GQ\275\373\3336\276\360Q\035>\305\301V=Ou\n\276\260)\002?~\366\014>\206J\366>\352\345\003\274\341,\307\273\223\232\333\276\376\273Q\277uv\010==\023_\276\376\302\235=\323\373\372>wA\354\274\247h\345=\010\241\372<)/\234\275\370c\312=\010\326\251\275\257t\353\276\267\007\255<7\211\031\277m\275\n?\032X\330\275\005\276\312\276&\n\207\276\312\300l\275<\355\211\275\347\027u>O7\370>zj2\275\261\3206\276\202mj=\235\222\256\2759\217\240\276\261\263\014>-.\222\2763$\027\2776+\242=Co\353\276\264\252f>\"\327\251<Mv\342>\350\353\363>\202\342E\276\374\037]>v\344S=\031Z\311\275\036\254:>`x\206>\323\216\003>?\342\\\275\341j\373=\257\344\264\276^\033Y=@Tv>\371Q\004>A@?\276I\324\247\276-&\267=\245\360\210\276\354\336u\275\030\363P\276\265\343-?\3331\221\276\325\261=?\205\010\375>\211\311r\276R|`\277s\177\337\276,sq>\224\322\264\275\003\001A\274e(\255\276,\233R\277\000\213\006\277=\236a>\314l\343=\0102^\277\255\220\213?\306\301[\275\036\327;\277\365\301\263\276\017\341\242>\352\337\003>w\372(?ca\302>\262\341\263\2772[\261>/\223\005\276\3569\013\277x\347\030\277*l\020\274=\274\000\2760\3546?Vs\364>\251w\330\276@\203H\274e\303\212\276]\273\214\276\232\366\344=4\002\020?>\367\241>\216\333\261\276>>b?3\003\325\276\301\262(\276X>\003\277y\203-\276p9\303\276\317\360]\274\026\037M?7\222\304=\3360\370>\017\303\r\277\0072\370\275\243&\344\276\351\033\334\275D6\252\276\303t\235>\332\027F=\0010\201>\320W\211>\214\016\257>\365\270\243\276\242\tK\276\372\346H\276\000\331\014\277\247\273[<\035,\234=X\371r\276Cy\266\276\233\341j\277\355\267\r\277/\220\350\276\340\032\203\275r\273\363>\205Z\210\275=0\232\276%D\250>\231\261\330\276\344\027\331\275\214\031b\276\030N\253\275{\370\024\2760[1?\3706\277=V\217%\27645\336>\261`\313>\031\273\255\274a0O?n?[>\333o\"\277/\207)>\272\256\021?D\010p>\220P\377\275\241\376\237\276l\310\002\277\376\363-\277~\241\001=\222\"O\276O\221\207=\201\221\275>\311\265 >\324\032\215\276S@\355\275L\266\212>\036\"\201\276\362\353\243\276\265.\253\276\002\260\370>\037sS;-]Y\276\007\030\262\275\316u9\276\215v\324=\342xZ\276\242r\000\276\333\215\251\275\256\017`>\324\242C>\240f\360\276$\2440>\200\215I=\252\266h=W\204L\276\215oE\2761Z\231\275~A[\2772\325@\274/\341\263>\250\252M\274\252\273\267\275H\310\267=\344\362N\277\360GI\277e\020#?\370\352\351=\302\215\206\276\036\371\216\277\240\000\321=c\200`\276\022,\330\276AT\032?#\'&\277\251\224=\277q\371\334\276\"\277\347;\347\010\334\276\231\257o=\343\240E>zLJ\276\243D\235\276\020\301\225>\225XI\276By\225\276\'\372i\277]\371\204<\260.M=J\324\037\277\203\3047\276\213\345\036?\030\306\022?\'\214\351>\234\'\226>\203\033\257\276j\263\371<\326{\017\276\331\372(>\035\324\335=\370\232\325\276\023\007\375\276T\321\243>\323\262\020\277\263\020\230>\207\"l?n\352\277\276\311p\374=\002\306\203?\234p\232\276d\354\006\276\326\3621\276\360\275\227\276\370K\330=\374\351\023\276\240\225\256\275]\254\374<\251Ut\275v\004\327\276,v\010\277xq{>\263\023\351\276cz\207\276\241\256\330=\334E>\276q\3360\276[7\210\277T\370^\276\303\370\007>\260\323\263>S\227\332>\205\271E\276C\2632\276\327\027\222>\316\211\027\276}\n\343\274T\200\037\277\263hR\276e\311\304\272\346\333\222<_\232\256>\232\232$>\373\253c>\316\336\271\275\243\325\364\276\366\263g\277@/7\277\025\320\336\273~j@\275v\245\n\275\243\\\305>\352\324\240\275\226\270\351\276\\\324\021?\245\241G\275ld\222>\332\304\273>\352R\t\276\341\0103\276Wg\315<\240\027v=f\021?\277\215\t\346\276\365\373\373>\032\214\243>\222\351\315<\273bu?\326\r\271>l\006\243\275\241;\270\276Qz@\277\247@\277\276/\031F>\220\">\276\226z\372\274l\002\376\275\324F\034>\346\221\013\277\3344\203\276\306\221\r?\352\027\256\276\020\337\007?cdF?\"\260>>V)\006>\326f\352=\264\355\030?\236\3364\276\376\236\022\276\250I0?\274\355\305=9\312 \277\004\nC?U\'\321\276\342\242\014\277\354\313\255\2767\316G\277\263Y\213>\203\320(\276I\031\201\277\022\254?>FP\360\276m\0058?\372GP?\203\232\253\277\257\000\030\277F\201,\277\246\355H\277W\272 >\354\003\354>\200\002\010\277.Q\316>u\202\372>\345c\237\276\003\201\204\276\235O\350>"
      }
    }
  }
}
node {
  name: "sequential_1/dense_3/MatMul/ReadVariableOp"
  op: "Identity"
  input: "sequential_1/dense_3/MatMul/ReadVariableOp/resource"
  attr {
    key: "T"
    value {
      type: DT_FLOAT
    }
  }
}
node {
  name: "sequential_1/dense_3/MatMul"
  op: "MatMul"
  input: "sequential_1/dense_2/Relu"
  input: "sequential_1/dense_3/MatMul/ReadVariableOp"
  attr {
    key: "T"
    value {
      type: DT_FLOAT
    }
  }
  attr {
    key: "transpose_a"
    value {
      b: false
    }
  }
  attr {
    key: "transpose_b"
    value {
      b: false
    }
  }
}
node {
  name: "sequential_1/dense_3/BiasAdd/ReadVariableOp/resource"
  op: "Const"
  attr {
    key: "dtype"
    value {
      type: DT_FLOAT
    }
  }
  attr {
    key: "value"
    value {
      tensor {
        dtype: DT_FLOAT
        tensor_shape {
          dim {
            size: 26
          }
        }
        tensor_content: "\363&\207?\304\247Z?\351\223\023?\360\2716?b\340\016>\n\240\251<\245AL\276/r\253\276\313\301\036>\037\240B\276\266+\014\276\n\200f\276\"\262\274\2762J$?\022\216L\276\036*z\276\0105`<C\345\027?\341\010H?\313\014\372>\027\267\202=\035%P?\244\315\\\276D\225\027>\3521\'>%\020\217\275"
      }
    }
  }
}
node {
  name: "sequential_1/dense_3/BiasAdd/ReadVariableOp"
  op: "Identity"
  input: "sequential_1/dense_3/BiasAdd/ReadVariableOp/resource"
  attr {
    key: "T"
    value {
      type: DT_FLOAT
    }
  }
}
node {
  name: "sequential_1/dense_3/BiasAdd"
  op: "BiasAdd"
  input: "sequential_1/dense_3/MatMul"
  input: "sequential_1/dense_3/BiasAdd/ReadVariableOp"
  attr {
    key: "T"
    value {
      type: DT_FLOAT
    }
  }
  attr {
    key: "data_format"
    value {
      s: "NHWC"
    }
  }
}
node {
  name: "sequential_1/dense_3/Relu"
  op: "Relu"
  input: "sequential_1/dense_3/BiasAdd"
  attr {
    key: "T"
    value {
      type: DT_FLOAT
    }
  }
}
node {
  name: "sequential_1/dropout_1/Identity"
  op: "Identity"
  input: "sequential_1/dense_3/Relu"
  attr {
    key: "T"
    value {
      type: DT_FLOAT
    }
  }
}
node {
  name: "sequential_1/FinalLayer/MatMul/ReadVariableOp/resource"
  op: "Const"
  attr {
    key: "dtype"
    value {
      type: DT_FLOAT
    }
  }
  attr {
    key: "value"
    value {
      tensor {
        dtype: DT_FLOAT
        tensor_shape {
          dim {
            size: 26
          }
          dim {
            size: 5
          }
        }
        tensor_content: "\330F\375\276\337\237=>X0\000\276~p\010>\364\037\020>\205\212\252\276\353Pu>\215\341{>\334\234\n>\224%\224\276D\360\215\276T\321+\276~\341\271>&y\305>\310\302\306>\213S\264\276\200M\266>;\216\262>[,\271>\021\216\226\275\323\022\223\275\245\003\224\276eC\223=\216q\'>\332\033<\277d\273\007?\021\001\013\274\347\343\340>\026\224\010\276\t\362\353\275?q\215>\212\267\362\275\025\026\303\275\270&\277\276`\333\216>!f\021>\233\222\330\276!\021\202\276e\312\215=qq:>]\322\243>\271\307\243>3!\206>\001\203\267\275\217\366m\276e[\236>{\362\253>\2118\002\276\263\273\275\275\236\3011<f\306\326>#\201\261\275\326,\304\275\324\225\003>\216\260\335=|A\262>6\017\250>.\306\013\276\30788\276\354\230W\275\314\014\215\276\035\021\260\276\354\227q>+\222D?n8\034\277\0348\314\276\rK\201>\376\367\256>\311\267\261\274\023\363\303>\2414\337>\212\225\327>\257\210\371\275\225\204\270\275S\324\264>w\340\213:x|\307\275\336O\274\276\233\333L=\311\354\024\277(\306\276\273\\\2438\276\001No<\352p\274\273\264Z\303>4R\032\276\027\316z>\341\004\205>\036\271k>\344\003\313\276w\300\271\276<\350\n=\"\205\375>\337\001\347>M\366\213=\001\261\014\277O2\223\276\304\340\234>9\304\323=\316a\\>\365\327\272\276\233/)\277\302\013\230\2769\3606\274K\214\244\273s\215q\276\375\247\344>\234\254\355>\240\340\224\274\207TG>R\373}>\236\234S\275\377\005\335=\320\223$>\276\311\235\276\303\331Z>\342\'u>xH\365\276\341\232\035\276\032\216>>m\220\215>\252W\241>W\031S\276X\376q\276w\007\203\276\002Sk:\244jw\276\210T\014\277\232\361\267=0)\001>"
      }
    }
  }
}
node {
  name: "sequential_1/FinalLayer/MatMul/ReadVariableOp"
  op: "Identity"
  input: "sequential_1/FinalLayer/MatMul/ReadVariableOp/resource"
  attr {
    key: "T"
    value {
      type: DT_FLOAT
    }
  }
}
node {
  name: "sequential_1/FinalLayer/MatMul"
  op: "MatMul"
  input: "sequential_1/dropout_1/Identity"
  input: "sequential_1/FinalLayer/MatMul/ReadVariableOp"
  attr {
    key: "T"
    value {
      type: DT_FLOAT
    }
  }
  attr {
    key: "transpose_a"
    value {
      b: false
    }
  }
  attr {
    key: "transpose_b"
    value {
      b: false
    }
  }
}
node {
  name: "sequential_1/FinalLayer/BiasAdd/ReadVariableOp/resource"
  op: "Const"
  attr {
    key: "dtype"
    value {
      type: DT_FLOAT
    }
  }
  attr {
    key: "value"
    value {
      tensor {
        dtype: DT_FLOAT
        tensor_shape {
          dim {
            size: 5
          }
        }
        tensor_content: "\304\257\216\275\253\256\236\276([Q\274Y\326\003=\347\342?>"
      }
    }
  }
}
node {
  name: "sequential_1/FinalLayer/BiasAdd/ReadVariableOp"
  op: "Identity"
  input: "sequential_1/FinalLayer/BiasAdd/ReadVariableOp/resource"
  attr {
    key: "T"
    value {
      type: DT_FLOAT
    }
  }
}
node {
  name: "sequential_1/FinalLayer/BiasAdd"
  op: "BiasAdd"
  input: "sequential_1/FinalLayer/MatMul"
  input: "sequential_1/FinalLayer/BiasAdd/ReadVariableOp"
  attr {
    key: "T"
    value {
      type: DT_FLOAT
    }
  }
  attr {
    key: "data_format"
    value {
      s: "NHWC"
    }
  }
}
node {
  name: "sequential_1/FinalLayer/Softmax"
  op: "Softmax"
  input: "sequential_1/FinalLayer/BiasAdd"
  attr {
    key: "T"
    value {
      type: DT_FLOAT
    }
  }
}
node {
  name: "Identity"
  op: "Identity"
  input: "sequential_1/FinalLayer/Softmax"
  input: "^sequential_1/FinalLayer/BiasAdd/ReadVariableOp"
  input: "^sequential_1/FinalLayer/MatMul/ReadVariableOp"
  input: "^sequential_1/FirstLayer/BiasAdd/ReadVariableOp"
  input: "^sequential_1/FirstLayer/MatMul/ReadVariableOp"
  input: "^sequential_1/dense_2/BiasAdd/ReadVariableOp"
  input: "^sequential_1/dense_2/MatMul/ReadVariableOp"
  input: "^sequential_1/dense_3/BiasAdd/ReadVariableOp"
  input: "^sequential_1/dense_3/MatMul/ReadVariableOp"
  attr {
    key: "T"
    value {
      type: DT_FLOAT
    }
  }
}
versions {
  producer: 561
}
