node {
  name: "FirstLayer_input"
  op: "Placeholder"
  attr {
    key: "dtype"
    value {
      type: DT_FLOAT
    }
  }
  attr {
    key: "shape"
    value {
      shape {
        dim {
          size: -1
        }
        dim {
          size: 28
        }
      }
    }
  }
}
node {
  name: "sequential_1/FirstLayer/MatMul/ReadVariableOp/resource"
  op: "Const"
  attr {
    key: "dtype"
    value {
      type: DT_FLOAT
    }
  }
  attr {
    key: "value"
    value {
      tensor {
        dtype: DT_FLOAT
        tensor_shape {
          dim {
            size: 28
          }
          dim {
            size: 28
          }
        }
        tensor_content: "A\003m>\247\2667\276f\324\355\273\346\221B>\316\347X\276b\026m>\257\302\016\276l\272O>\003\310e\276\370a\037>Lh,>Y\357\006?E\\c\276-v\302=\315\261\331=\276\254\263\274\023\315\321=\345\025D>\242{f>\225\326S>\336w8\276\237X\322\275\231eB=\341g->\254\np\275\227-\235>\033\375\265>?;\027=\276G\002>T6I>\320\336~\276u\334|<YT\202>(z\344\275>A\331>n,.=B\254~\275\237IV<?=\211>%W\013>\271\345\232>pQ\035\276\303\250\032\275\322\006\267>pY\250\275\230Q&\275\250;\334<\036\337\206>\234b\365=\342\256\243\275\341g\004\276\032\336\343\276)\251\004\276-\332\240>\377\3302=\333:\317:\245\r\343>\314\":>O}\363\274<\311\021\275\372\376\206=x\225O=C`\264=\311\261y>\211\'F>\203\326\007\276\362~\031\275\214#6\276\003\206\252>\222G\225\276\357\376\264\276\177\n\207\275,bP>{t\026\276P!:\276\261\r\004\276*\310\241\275\320\2272>M\207p\276\323D\327\276X\226y=\340\237\243\276c\256\014\276\204\024\233\275\264-\257\276\270\312\010\275\352\220(>\274\242\t>!\315\322\275\205\303\366\274\301d\r>j\311!=\244O\311\274\301\262a\275=$\242>\220\367\326>\350B\344>l<\r\276\223\330H\276{\250\026=,&\254>\303\367\025\276GH\036=m\251\377\275\351Q\253\275\270\032\254>/\357\007\276\264-s>\261Z\355<s\330\304>!Ff\276\312\251\335\274\260\256\265\276\3712\304\276\204\207$\276@\225\317<\343I\276\276HD\264\276\371M/>\337\271\016>pb\337=\350\010\007>\254\350\362\276\354|*=\374\007\234=\214\302\213>\343\267;>\326O\207>\032 \314\274:\220F=\275\201\315\276\022\204o\276\255\277\324=\324\r\004>\036w\025>\236\034\205>\342\231\234\275\310f\'\276\333\317\014\277\036\325\220> \342\204=x\0059\276/\200a>\300|A>\352\207R>^\360\360\276\223\277D=\320i\346=\242%!>\001\317\010\275\342\362\341\276\335A\255>\253\267\206\275\236CH\277R\370\204<\331X\017\276\323\301\376\274\336\010\310\276\273\312\375\275ta\362=\345\326|\276j\250\005>\223@n\2768r\343=\2032\320\276\365Q\033\275B\010\202\276\026\365\243\275\321\243\000=>\203\303=\256\337\232\276\373TL\275\374vC\276?\t\271>\003l\204\276\317\234\255\276Z\2208>\253\242T\276\237\003\351=\377~\">i\257\361\275B\262\276\276k\351\334=\225\031\263;\026\364\213\275cR\256\276\315\362s>\224\225x>\034M\234\276\001\365\272=`j#>K\257\360;\000A6>a\017\022\275\3476\226\274\300k\025\276\230v\027\276X\300\346=\316\274@>L\205\212=\200\322\265\273\304\3706\277\001\300\364=\310\317\265>\315\302z>\246`\004\276\340\016\005<fJ.\275S\342\307=\211\026@\277\274\363x\275%&0\276N\340s>I%l\277\002\t+=\340!\260\275\232o\206\276\177X\034>l!\216\276\306j\'>\"\210X\275\245\035\277\274\244\005\366\276\205\013\366=\036\025\307\275\205_&>\301\366\304\276\341\347p\276\261\022\233>\327\263\302\275\233\215\216\275\350f\235\276P\355`>v\010\221\2760\331\252<n\334\010\274\332\326\273\276f\305D\276!\274\327>\020\324\275>\223\002f\276\024\223\t\277\315\017\004\276?\022\364\275@\253N\276\367G\202\275--->\210\204!>d\313^\276\230\366)\276\021\020\224>_\332\031=1\256\'\274e\2477\275\324\315\334\276o\350\300=a\n\302\276\230]\222\275\315K\255\275r\217R\276U\242\314\275H\365\007=\035>K>\370\323M\276\253K\343=C\315\322\275:l\230\274np\016>5\033m>\200\260\035>\344\325Z>\267\334~\276\233\332\033<\005.\002\276\365{W\276\030~\267=\226\203->m\206E>~\340\353\275\232m\242=\235\266 \276\014N\255>\310=\303\275\272\005(<I~\202>\345\275\263\275\341\221*\276\000\246\216\276\t\363\271\274\217\273?>\006\233\235>\026\r\374\275\"\340\210\275{W\004\2756\236\023>\265)^\276\262\033\341<]*%\277\314#4\276)G\333\275\240N\201\275m]\325\275*\361\223\273\005cj>\002:\020=p2\307\273KM\237>nY\372\276\3368\360<G\023\231=\251\332\316\275WSn\273\257\030\315;\226\356e>\177\254k\276+\024\031\274\013\255\226>G\266\245\273\233V\256=\t)\265=\325\310\261>\316a\305=\355D\004>\242[\002=\210^,\276\214}\260=@^\034<*\356O\275\305\276\222>P\2652\276\367\"\204\276\211^B\2750\313X=\351\240V>W\'7=\037\211\275=Si\024>\260\242\001=\225\3122=\002i\302=\213\340]\276(r\035>\025\254\223\276\233@\207\274cB)\276T\353\315\276\255%z>\242u\023=\007\303n=k\230\021>\306\244i\275\267w\371=\265dc\276\026d\227>\230\261\363<\327\007\207>H\305o>\034)G\276\276\211\315\276@R{=\300\217W=\024\t\345=\rt\r>\300\361\216>\354\373\036\276\224pm=\007\270 =\031\213\210>\367A\n\276\353\245\273>`\350\204\275<\374\244>\275\032\003\276\343\373\246>Cg5\276\332\301\313\276\267\007\035=\005\346+\276\325\024*=\\\273;\276D\224\322>\020\370\335\275\265\343J>\375\377\321=\033\022\315=\276\210D\276\035\343\216\276h\371\324=\315\252\004\275\250V\200\275\262\257u>\364\310\032<o\314\210>\3631(\2742\241\003\276\037\244\271=S\374/\275og\236>\226\204\255\276 \215\241>\024\356\210\276d\356,\276\361\025i\276;\025 >\232MD>.\235Y>@\312\260=\031@\t\275\302|P\276e\023\221\276\223\2750\276\013A\241\274\'\366\310\276E2\356\274\rE\317\275~\335\\\275\301\334u>+\211\243>\326\242N=\017\357\233=yi\035=k6\345\273\340\234!>\363\246\263\274\343\253\253>\273\006\240=C\243c>\206\323z=\034?\r\276\275R\227\276\262}\215\276\2436\202\276(\002\213\276b\217\315=\'\312;\273\367\355\272=\271\344\256=\000c\300\275h>\026\2768Hg\276\035\202k\276\210\321\004>|\253\220>\341\237\212\276\365!\021\275\326\211\001>\332\'x>\261r\273=\276\332\034?\031[%\300U\342w>R3.\300\356:t\300\355\036\375\276/\007\272?K\374\360?is\017?\036G\245\276\3050K\277G\004#?m|\240>\236\214X\300D|\002\2772}\220\277\250\315\203\275\001*\315>\222\367\203?#\217\\\300\241\3431\276\220\014-\300;C\027\277\370\333\276\277\217\313\223\300\273)V?\314\316\322=w.\004@\214F\350\274\234\014\"=\006%`=Z\3677\275\276\331\216=\376T\202=\0378\000>\234:\357\274\206\221\265=\005\305\250\275\342\276\320\276d\t\235=D\224\205=\017\307i\275\240\262\311\274\013\310\244\275\355\266\263\275\251}\360;\305|\242=e\327\341=\325\235\314\275\033T\344\273ZD\276=\260T\305>W3(<\201\rt\274\245\010@<\343(\005\275-\nu\274\n\256j\276\372T[>x\257\247\275\322\357\013=]\036\315\275;\202\235>\370l\304\276\320\270\353>\301\322\307\276<\206\225\276\025.5>mB\221\276[\375\261\276X\005\214=\202W\\=\230}\202<\tia<:\345\226<91A\275Zb\231\276\331\217I=\276\225\025>\342m3\276\314\'\310\2753I\177\276\207Z\224>\275\357\003\276\230\207_=\220\250\366=\326\037\005>-\361\030\277\020\342%\277\204IY\276\177\351\236\274\317V\274\276o\275\231\276`\356\032\275\276Z\333\275\263[&>)\347\371>\211\223\305\276&\234\264>\307\360\357>F\271\023\277;CF=\013a!<\221\266\235\277\323\363\331\276\016y\014\275\266i\370>\253\nK\276\250\007\351\276\'Om=~9J\276CA\301\275\036\263\014>\233\323C\276;J\322\276\345\307\336\274\236s\257=\241\257\034\2768\275\344=K\233#\276\255\224\225>B!G\275gT\365<\345\267f>\213\352\240>\330\350\003;\226\246\026\276\202~0<\007\r\315\274\212+\224;\376\225)=\017\236\220>\372A\201\275\234\244\336\275\246p\251\2763\037a\275\203\035s\276F\240\221>\334\303\365=3~\017=\267\314$\276\014\262\351\275\367\327H>ic\270\274\034\360T\276\347\3078\275\233\216\201\276J\360\312>\204b`\277G\\\212=\220\326\"\274#\206s\276\225\265\n>\264\t\265>\313\305\276<\271\344\031>\361\236\036\277\204Z\341\276\302T\230\274X\026\214;I\017#>K\007\267>A\270M\276\275\241\302\275\314\023\036>\351\033[\276\005\014\022\276i\202X>\352\221\250\276\250\267\234=E \034\276\315\030\207=\035\323-\275.4\215\276\033\325L\276\206Ut>\374s\330>\266\304\324><p\014\275\245z\222>\330G.>F\351\235<\354\257\247>+\312\322\275f,F\276\020\331\226=\265~\206\274\004\010\263\274\376\224\214>V\'1\276\326#\241> \247\265\275\0019=>;\232\361>\005\242\217>\233\240\034>\032U\327\275\035%\247\276J\364]>\037s\276=\273\315j\276\\\345\262>\216\037\203=V\232\334< \006\016\277e\0104>\005\215u\276:p\251>\362\267u\273#\245?\276\312&\264\274x\325\202\2755\333\264\276\317\020\207=4\211Y>(\021\207\274\334w\253=\234\376L=^\014\007\275+\006\207=&{\340\276nNE\276z\357j:\332\215J=\214Wj\276o\000\205>\206\347\"\276:s&>)-\300=k\020\345\275H\017\247\276\240\005z>\230\023\265<\225X\226\2768\t7\274\334\347\243=l\366\251=N\321H>\035\027\340=\223\325\312\275s\322\335\276f\365\275\276\000\033\277\276\350\332\255\274O\310\014>\240\343\'\2760\227\241=\332\333\231\276\346\021\213=\356\352\203\276\230d\366<\240\243\373\276tp\214<\261#\205>\263s<\275\024\322\251<[\274\031\275\364\365.>\206,=>ji\307\276\377\261\007\275V\210\215\276\267\006\030=-\303#>\255+\247\276\300\017\265=:\026\231\273\274b\n\276\361\320\237\276Y\001\374=\302\301\'=7\230u\275\356\316\253=\275\2311\273\366P2\276\205\003\244=\362Hu>sXN>\247s\325\275\215eV>\232\257\255\273\330\0346;Qm\031\276\377s)\276\367U8>\260\3332>\343P\030>1\002\275\274\375\337%=\267\230\200\275\201s\265\275\347\317\201\276\036\253H>\241P\246>\355\351.\275\021\203\271\276\321s\371=\343\276\355=w\277+\276\335&\t>Q\207\235=\371\210\306\273)\306H=\037\302\341=el\221\276\235S\016>\300{\223>V,\372=Gw\366\275G\206\370\276z\205\252\276\017s\324\275}\327_>\200@Y>\211\303c>2\326~\275\tQ\220=^\225\223>\363\016\265\273\303\252\322\275>\370\265<)\234^<n\264*=X\236\372\276\232\026x\276\3649\374\274\322\0370=u\305O=\377Vu\276\034\243\252\272\247PH>\224%\321\274\210\361)>\275\234\227\276\225\356\226>d\273\233>"
      }
    }
  }
}
node {
  name: "sequential_1/FirstLayer/MatMul/ReadVariableOp"
  op: "Identity"
  input: "sequential_1/FirstLayer/MatMul/ReadVariableOp/resource"
  attr {
    key: "T"
    value {
      type: DT_FLOAT
    }
  }
}
node {
  name: "sequential_1/FirstLayer/MatMul"
  op: "MatMul"
  input: "FirstLayer_input"
  input: "sequential_1/FirstLayer/MatMul/ReadVariableOp"
  attr {
    key: "T"
    value {
      type: DT_FLOAT
    }
  }
  attr {
    key: "transpose_a"
    value {
      b: false
    }
  }
  attr {
    key: "transpose_b"
    value {
      b: false
    }
  }
}
node {
  name: "sequential_1/FirstLayer/BiasAdd/ReadVariableOp/resource"
  op: "Const"
  attr {
    key: "dtype"
    value {
      type: DT_FLOAT
    }
  }
  attr {
    key: "value"
    value {
      tensor {
        dtype: DT_FLOAT
        tensor_shape {
          dim {
            size: 28
          }
        }
        tensor_content: "\274\242U>uYo=\336\276\232=q\300\211\273\206(T\274\221\0108<\273\243\026>\245\306\0039\035}\234>\370\3657=\317Z2>\037\235\252=\231r\006>[\'\311=\231\250\235\274\334W]=^Y!>\373\226#>Xq\003>\230z\231=\177\2544\274\017)!=\304T\002\275[\006\307=_\3437>\201RZ>\032\025\214=\233\310)>"
      }
    }
  }
}
node {
  name: "sequential_1/FirstLayer/BiasAdd/ReadVariableOp"
  op: "Identity"
  input: "sequential_1/FirstLayer/BiasAdd/ReadVariableOp/resource"
  attr {
    key: "T"
    value {
      type: DT_FLOAT
    }
  }
}
node {
  name: "sequential_1/FirstLayer/BiasAdd"
  op: "BiasAdd"
  input: "sequential_1/FirstLayer/MatMul"
  input: "sequential_1/FirstLayer/BiasAdd/ReadVariableOp"
  attr {
    key: "T"
    value {
      type: DT_FLOAT
    }
  }
  attr {
    key: "data_format"
    value {
      s: "NHWC"
    }
  }
}
node {
  name: "sequential_1/FirstLayer/Relu"
  op: "Relu"
  input: "sequential_1/FirstLayer/BiasAdd"
  attr {
    key: "T"
    value {
      type: DT_FLOAT
    }
  }
}
node {
  name: "sequential_1/dense_2/MatMul/ReadVariableOp/resource"
  op: "Const"
  attr {
    key: "dtype"
    value {
      type: DT_FLOAT
    }
  }
  attr {
    key: "value"
    value {
      tensor {
        dtype: DT_FLOAT
        tensor_shape {
          dim {
            size: 28
          }
          dim {
            size: 52
          }
        }
        tensor_content: "\207\325\013\275\374*n\276\211\334\210\276\206&\257\2765\242\031>\254\2048>8\346C\276m A\275\312\032\237\276(PU=\254\024\235>\2378\014\276{\375\302\275\022\325\252>\023\260\215\276\\\3477\275r\221\226=9|`>4pH>\347L)>EO(>\351\350^>\307E\226>\3728\245:\264\030\250>\304?\'\276\247(U>I\315\210>Q\245\235<\237p\005\276\203\206K>A<\275\273sa]>\264F\306=f\352-<G\007\355=\177\250O>\353vC\276\216\231\301=w\037\247>\035\257\001\276\025\031\362<\220\t\242\273n3I\276\324+\221>7L\221<\000\031\231>\376\321!>P\022Y>\260\177\260:6\245\215\273\347\366\n\275\301j\014>q8\276\275D\017\342\275\037\372\330=\317\236\201>\222\031\036<%\2440\276\022\035\220\274\037-\027>\315\241\323=\352\211;=5\320f<\363\014\004\276\367\024D\275\323Xu>U\0217>\347\036\341\276\204\251\317\273S5\250\276\320h\315\275z\360\305>\034*\265\276\347C\341>Q\033$>\034>1\276R\374\346=B\367]>\241g4\275\004\005\\>\2052\237\276Riz\275&\277\345\275\245J\213\276<u\247>1\367\247>1\334*\27503\255\275\327\037U>#\024\356=\2275g\276\361yU\271u\233\n\276\226\252\023<\177X\322>\226\334}\276-&\355\275Y\262\037\276&\017\315\276\310\254u\276\244p;\2739\177\263;@\224p\275x\2753\276\016\207m<\245B(=\324Q>\274}{z>\241\335d\276N<F>j\037\274\275\007x)\276\347\034\241=\337<\r=LK\224\276/p\215>\017W\031<\364\025\017=T:\022\276\357\307\"=\303k\244\276\254\342\206>[^n>+\241M\276nG\224\276\305_w\276S\202[\276\220\217\261<\373*\203\276\326\326\206\274`\337\034>\245\215\247\276\257&;\276\274\320\312\275lC$>-b:=\'i\355;\030c1\276\354G\\\275L\277U=z\n\277\276\303\014\202\276mCy>\305K\001\2764\020,=\0323\234>z\3748=\326 8>@\321\300=\277\245\017\276*M\004>\217Y\245=\23517>\337I1>B\331\367=\347\247S=\314\014\354= @\003>\\\312\037\2763\227/>\337\033\267\275\340\014\372\272!\317\240\276\346\202\362\275\311o\267\275v\036*=\2453\200\276\323s\037\276\346\030\232\276\201\'\224>\347a\240>\030\320\244\275\034\205\205\273\217\000\201>\227\330\365\275\314\263\r>\3518\212\276\212\332\014\275\211~\241\275\330\357 =\365\243$=\253\3739\275\271\026w\276j\335&>\340)\203\276\342;l\276\013\227\341\276\021\217(>h\0030\276\260\350\226\276\256\002\311\276\036\030\270\276\247\346\241>\234M\360\2753\370\210=\357\262g\276^\207\221\276\357\325v>\022o=\276\323\265\340\275\033\'q\276\335\367\302\275\305\262\201\276\245\273\343=3\016\302\275\014\'\257\276\204)\311<\316vI>`qO\275GG\t\274\307\177\003\276\354\033\244\275XOt\276R.\025?mU\232\276\236\312\337=j\247t>x7\\\276\327\037\227\276\n\214p<\274\037\206\276!\025<>\020\333\211=\220\254\240=\242\364u>\242\2422>m\262r>O>(>7\034\217\2764\272\211=\254\216\211>\261}}=\256\334\206\276\001`\243>\024\302.=\272\307F=\235\323\361\274\304\266\032>4 \017\276\317t(\276|\221\306<\203-K\276\236\271w\276\247j\200<!\031\\\276i\1774>n\004\024>\315\321&\276J\223\241\275\372\373\316>\376\210\006?\311e\204\276G\"S\276K\301\323\276\336X\'>(\320_>\005lZ=\326!\016\276\227\362\311\274fil\275\373\217\333\275\014\235\335=\315\370\322\275(4\347\274\344\312}>\026\240\005\276~\240;\275\255\217Q\275\034H\240=\273?\034\274\177\'\023\2768\344D>\242n\331\274\t\222O=#\214C<\021\240}>#sH<5w\201<\000\023\231\276\312\363\372\276\245\"\007\2758\017E>\022\276\245=\224#\250\275\026s =\246\217$\276+\212\036=\256?g\276\013\325\037\276\251s+\276\367\362[=\211\033\325\274TF\365\275P\360\226\2769\351t\276\023D/>\337\235<>\350\t[>I\n\235\276Fx{\276\215\254\205\276\276/\306;\266\203\227=2\343\013\276e\017\211>-\333\020\276R\232\216=\212z5\276\357\017>>A8\376\275P\273=\276k`\177\276h\375H>\313\276N\276\010\020\013\274\244\220N>s\370\376\275\'\352d>\030\020 >\350\350\232\274\354\006[\276p\374\256=Q\366\036>\007ua>Z\266\267>vw\211=\032\006l>|\317\273=\'\267\007\276\365\253i\276\274\247\017=A\005\001\276F\004\277<\260\033#=!$\036\276K\340G=\251\326\r\275l\003.=\244>\312\275)\230\235\275\201\001\r\276\\\366\037\275\253\016\331<\254\2544=\263\371\325\275\nC$\275;4\331=sI\334=\317{\363\275v\"\353:u\377\336=t\364\030\276m\254\306\275a#\275\2747\350\217\276\372\020\207=AH\035=9\376\027>\357\371\263>\336\2758\276g\233\245\275\362\253\224\275\245\323\007<\"j@\276\202:x>\0040\231\274\275\3638>m\345\022\276\304\272A>w\n\245\275\370\267\376=\266x\003>H7\200>\260\035\345\275\367\357p>\312Z\177\274\220Dm>\346\263\210=y\262i\276\nn\241\276\247\n{\276\334\237\367<\355b\333\274\351f#\276\2236\300=\275\254\314\276ee\367\275Z.}>\354J\322\275\264\004\t\276/\326S\276M\325\256\276\314\313\220\275\303\340\326\275\335;`>\251L[>/\215\034\275\316\322=\276\311{\301<\332\010&\276\370\367.>\317\255j>h\345\220=-\230\035\273\210\216\255\2750\375\307\274/\210\265=\014dR\276\316\027\033>\346HK\2750\341\243\276!n&\276F4Q>\360\225C=}\002n>9:+>\262*\214\276\026\252\250\275a\036O=\323(\022\276M\333\211\2752.\023\275IV\220=c\204f\276\r\033\233<\0044#\276nhN\276g2#\277G\215\217\2766&<>/UI\275\030\205&>\367G\017>\3121[\275\032C\236>E6D\276z\261\257>\206\300\352=\213>\223\276\010\366\210>\304wv=4\341\216=\264\256\216\276\245\274~\276)\224\036=\236q\326>\337D\221>Nkf=7\275?=\340\267\225\276m\202\264<\030\250N\276\300\256\202>B\216}>Q\334\204\276Y\337\227>\306t\010>\373\315P>\271\376:>\255#}=\017\367|>=\223\313=f\313\350>\234w\024<\363F9>%\375\366\275niw\275\207Q\t>h\207:\276\306<K>\031\006p>\200\314&\275!oY\275\037\205\373\275kPO>\206\231\t>\233Y\202>\370\352\260\276$\330\r>-\302.>X\207\250>\371\244\306<\344\306\220\275\000H\257=H\365w\276\004\256F>\2110\013=\214X\000>\251\3217\274\016\267\225\275|S\202\275\013)\305=d\361I>{\"\324=\300\275U\276\344\247\246>\205\266\032>\025p\363\276\013A\200\275\037\363\231=%%\032\276n\177D>\267\370|<{\205\227<\345\2427<j]H>\202\034\014=\230\035\203>\256\271\303\274\212\314\210>\327\241\216>\327\357\032>^\006\205\276\234Th>\220\000\267\275L\310\032\276\355\007D\276\273\355j=\344\260\325=< \264\275\245C\305\275\333\231\n\275]\360\210\276\373\237\222\276\337\324\277\274\202\375!>\365\376\224=Y\013\261>\022G\">\333\351\263\276\2321\372=\3713\205\276\304\004p\276\376E\027>}\274\333=\330&\242=b\261\375;\320%\001\277m\006\333<a\207\255<\354o_\275/\277\333\275\261\227\353=z\005\365\275x\210U>\312\326\252>\245-\263\275+\230\242=\222o\007\276\2604N>\261Q\214>g\033\n\275\013\314\320\275\035\0020>\332c\222>\034\343v>TD\340;\335\213\227<\226\000*>\364P\356=\365\007H\275Y\243\326=\230\020\265<\336,\243>\356\350\222>\235\247\355\274#\241\200\276\223\377\212\275 \344g\276\320\211;\274[H\245\275\013[\222\276\220\225>>_^\253\276\200\274\010>\231\237z\275\"\374\376=\222c\242>ue\214>/\261z\276\207UA\275\035\234\3148T\275\226\274\004u\347\275\024}7>\346\231\224<\275\202\272\274\352ld=\362\'}=\207\303\365=\202\206\210\275\230;\223>\026\341E<\001\223r>\306\244\213\276d\347Y\274\210\374\211>\274e\207\275\371\364\213>\321,\221\275\270R\215>\343\300`\275\324\226\214\276\000\020(>\231\274=\275\247\251\200\276\356\215\261\275\360]\374\275\027\213a>\337\221\275\276t\3057>j\267\303\275\266wQ>\033\351\034\276\320\227\010\2753\251j\274\230\364t>\343la>\332\030\330=\001#N> \235=\276U\311\232\274\244\345\"=\003\365\331<\307\211\214>\304\030\037>\353>\204<\214\024\032>\314\024\020>\241\330\177>\002\312{=\257\023\337\275\371\304<>\225\0330=\005\034\020>\331\251\215\275\226d\n\276\033\333{>\'\346\237=\350\013\215>\353M\336=\236e|\275\320i\353=\337K\213\276\311\360a\275\301.\341\276/9\316\274\273\033\247=U\272\337=}Ut>\257\352\323>\n\276\261\276\343n\005\275\267\006(\276;72>\270Q\263\274\347\244K\276z\031\340\275\\__>\304b\224=u]R=\000Y\352=\"\340\273\274y\351\\>k\351\202>\247\324?>l\025\204\275\201\003\225\276\000\017\036>\221\360D<\200\254p\275,y\214>)\274N\276\017%\376\275v\3371\276\240\200\243>\334D\216=\025M\215>U\355\037\276t3c\276\277\246I>\314rL\276.j/\274\340/\232=\',\353=\251\243!>\326\232C>A\277\363\275\311\0334>\002\324\025=\002\030\241>k\236O\275R\334\345<\240?\025=\307F\244\276\216\226\361=u,\001\276\304;=\276\033\010\343>\364|;>\324\0028>\266c\343\275\276\241\253\275\010\220R>\362\277\273\273\260*\036=b/\252=\327.\242\276\240}:=\241\240F>)]\260\275\276\214\216>p\0245>\245l\302\276\233\3004=\345\363\212>\367\0378>cfZ>X\261S>\"\214X>G4&\275!\373\202=\262 :\276\202\261S\275\276\254W\275+\3126=\373m\316\274\0207=\276\330\334 >\322;\202=Osn>\250\335\307>|\331;=\357\373\214>B\t{\276\320\023,>\363\341\337\275\341E\216\275^\212\311\275\367\372\027\276g\276\362=\243\264\206>zd1\274\270\373\016\276\205\n\366=\272K)>\341\226\211\276nY=\274\232i\316<\262\302{=\200l\"=\'\354\215>\253\344\221=F\t\013\275\300\251E\276\020\316\263>\332\372\202>lz\301>We\236\276\'\214]=\243\300\326\276\356Z\253>\3512#>\223wx\2768\n\036==\017\346\275cu\324\275\316\216,\275\254\276\264=i\030\236>\364\276\315<\024\025H>$J8\276\037+l\276_\276\'\276\226\245\262=\325\327\227\274\244\016\316;&!\276\276\225R<>\224\230\306=\253\261\026\276\246\322\365=\254\377\"\276\370\240y>\336\217~>\274\361\204\276UO\341\276{FI\276\014\034\260=&\273q\276\261\025\030>jJ\210>\022\030\237>$W\304=\316$\001\276\262vn>B,\217\276\215\254\334=\246\375q\275\221\351\254=\357uF\276I\243\240\276m\311c>\037\217\232\276?`\317\273\264v\231\276I8\261;\204\344\024>\357\207\325=\367\260*>\231\327\275\274A\200\377=\360\304\r\275\210\031*\276\2145;>tb\374<<\033\206\276\230\271\223;\233\221\027>\215?v\276L\300&>\2577\316>O\2318\276CF\201>\036x1\276I\311\023>\241\260\211=\005\020\247>T\363/\275]\322@>\2760\261\273a\235\017\276;.\251\275\330\341\240>\240\300\025>}\234a>\005\263\301=(\036\262>\231\276\207\276\333\367\022\276t\265\340\276n\\\316>\t\223\n\277GM\232\275\206;\354<|68>\014\002u\274\337\017\232\275\024\301\314=g\002\242>\004\342`=\337\267\313=7\261b\276\337\313\321>\323\033\001>\236\344\241;\256\017\205\2762\2679\275\\9\256=\325\3670=^C\310=N\233\232\275|\333\322\275\010\2712\276\255w\320=1\302\353=\000\001\347\275\r\021\023\276\360\214\251>\266*\347=\214\200\245\275\013{\331\275]\351l=q\372u\276$\330\177=\332\204\305=\2214J>T$\202>\306\312\347\275\334:x>\233\177Q\276\034\230J>\234v\005\276L\034\246\274^\333}>TR\205>\365\202\000\275\362*\317\275\222\265T\276\366\330L\276\'+\212>\032\234S\276R\230\216=k\214b\276\362\006|\274b\215\310\272\270m\031\276\023\270\300\276.\033\321=\224\216\n\276\026w\014>\333\374\311\275\237\032\327\275\302\324\204\275\266.5\276\213\263\017\276\n\024\264>#\016\367\273a\031\266<[\254\200>):5\276\007\001\017>\024T\344\276\310\250k>h\257)=\370D\314\275\356%8\276<as>\204\240\201\276\344\257[=\006\371c=\r\234J\275Y\007\2659\331%)>\202#\334=\002=n>\205\360\033\276P\302n=\021+\t=\024U\316<\307\354\216\276\204(\322=&l\263\273\270\227\333;D\"\216\276^\345\305\276\3122\340\274\022\331\005\276\023\225s\276_\242\303>\240#=>\017\314/>\375H\243\275\200\303N\276\240D\374\276\320\243\221>\237(+\276\021;\254>b\263\203\276\177T9\276\300\240\002>\204R\202=\325\025\033\276\305\344I>\333KE\276\243\'\370>\010C\324\276\343~3<\005\231\022?\277KY>>\274\255>\316\222v<\030\204Q>\213\224\233\276\363\224\266>\325\357\372\273C.\025>\356\010R=U\241\\\276\271\214\211>\3101\314>\215\273\242>\343X\230\276>E\206\273g\325I\276\356\010(>PP\250\275jcM\276\215\024\371\275\201o;>\217\232\330>\355\314\215>\265T>\276\013\327\237>\361\254\222=\204J\216\276&v`=Eu\224\276\377g\213=\214\031[>;\361\230\276\035\312l>\304\3445\2762BX<\266\036\211=\237*\217>\005BK>Y\260\026=e\355\">hbH\276q\207]>\245\311\240>\025=\025=\274\334\336>\023/\217<\\mk\276A\255\250<\323w?>}\221\372\276We9>w\026:>\025\244\024>\203s\277=Q\251\204\276\271\005m\275\276\232p>\210\010\t\276.\241\222\276\217P\177\275\245\234\r\276\357Fw>\242wo\275\227\273\344\274\030\\\211>\236\340\200>/#\260;QH\276\275\316\340\274\275;1a>\245\320\331=q^\002\276pf\014\275\252\373\035\276\232\300\355=\346\344\240\275\221\030\332\276;\337m>\276\225\233\275\210\310\267\275\177k9>\010\370\206\276\226u\201=\351c\233>&\207s\276\037\213l=\031\010\322\275\004\253\363<\006\005\216\275n\362(>Q\207U>\334\232u>&\220\037\276\226\375\320<\253\213\303\275\321\350+=\001\307e\275\375\347\272>\357\310&\2756t\225\276\000\341\244\274\256\3042=\035w\202\276M\316\002\274]\233\204\276\005\241\214\274\255\222G>\002=\203\275\245\220=>\031\361\202\276\212\315\203\276\363\205=>\273\243\305>g$\317=\213#\277\275\273\262\013>\225\350j\275k\327\363\275\026\tg\274\304IR\275\320h\003\275\311v\240=fjO\276\262\311\247=\337\214f\276M\2638\276k\313\277\275Q\253\251\276.3a\276\036IT\275\320\260\016=\005\217{>\212\375.\276P\220\324=%\r\331\275\302\216\270\274G_P\276^G\202\276\365\025~\276H\303U>\310\217=>\365}\202=a\n\374\275\227^\202<\344)\215>\241+\202\275mDP>,\201\325:\207\237\211>\2279\363=\331\335\r>\361\025\024>\210\354\375\275\212_\242>^z\034>\002\332\006\2769\264Y>\227\351\267\2766\n\344\274\275f\353\275\235\000`\275\356\362`>\001_\375=\314\267;\276L\245t>5\263\216=\261i\314\276\362\245~<\202QF\2762\215\234\275\375\3558>\235Hd>\267\312\'\276\026y\255>a:\326=\354\244\023>\027\004\347\275\267tX\276\014\021p\276\231\241\016\276\227\017V\276\310rJ\276\231\364\241=\257\013\317\275\350\226\314\273\240\213\200>]e\200>\337\014\231>\201\'\367\276.[\257\273\210\325\213\276bvh\276\032\023)\276\352\314O\276o\206\202\276\3775\036\2744\3622\274\347{\265>\226\343\245\275\036w\273\275\355\035p>\303\027\002?\243\315\301=\014Io>N`\235=d Y=\177\342B\276\373\316\202\275\264\000\201=\235\0007<<\220U\276\213\301\223>\302\213}=\270\n\324\275\207/)>f\260b\276\372\221\315\276\235\252E>9+\270\273d\006\325\275\332\362\270\276$\215\305\275)\305A\275S\327\277\276\2106\312\275\371[X>V\014\026>\253\337#>Z\300\215\276\254\005\004>l\301\240=Z\314\267>\343f\370>\237\326h>K\310\363\275i\302S>\375Vx>B\263\300\273\365\271\221<\002\254\005>\352\326\027\276\000&E>\355\320X>$E\321>\025\241>>\rj\330=\246\370\260>\344\327\000\275\323\256\\>a\361*\276\275N~>\234\272\264=\006\023v=s[\350\275\241\\\324\275\223 \247=\022\232\205\275\326#\002\276\032\010\312>\013\217\362\275\352\241\227>\376\203\016?\336\361\211\276\2373\204>\013\236_>m\226\221=\335\006\033\276\315\006\004>\330\261L>\252\361V\274Hm\251=\330\217\267>\233\344\205=e\340W\276]\027\242\276g\240c\2737\026\324=bmP<uu\317=\222yG=f\344\313>\314\327\227=~R+\276!\364\223\276\353s\271\275\014\324\265>\013c~\276\336\222\314>\035\214\241\276\365,h\276\217r\312>\010S9>\036\244\336\276\n\320\277<x\203\262\274\317\000\210>1b\261\275|\333\007>\020\236\247\276\244vX\276\032o\312\276\275D\332=@\306\002?\323\211\036>\t?`>\376d!\276lr|>\360\311\025>\271\351\014\276\032\030\345:~\305u\276\376\332\236\276\'5\322<\375\360>>\203\010]\276/C\264>sW\224\276\324\016o\275\005\013\367\275\275\254q\276\326\316\275\276\025\035H\275\377\t\r>\257\373\352=1\255\315<\n\367r\276\333\263\206=[\337\034>\324*:\275_J\216=d\305V\276\212\304\232\276G\364\206>\013\255\034<&Z\321\276im\254>\004f\">\204\t\226\2757\232\337\275\340?8=\317~U={\227\217\276\343\023\357\275\215\356\256>e\020}\275D<g=\033\235\026=Y\035\252\276\217z\221\2764\262\205\276\200!+=\217\207J\276\020\3002\276\232\306\331\275\213d\376\275\305\342S\276M\363\356\275\321\233\243\276O^\250>\'u=\274\346g\214=`\376\304=\217\217\221>\271\303\017\276\227_\330=*\352\227\276}\2670>\r\275\t\276\330\235\210\275zf\211<\n\363\221\275-\rB>\225\373\022>eQ\257>m\301\030\270\020~\250=r\303m\276\341\267c<T\324\306>VEu\276?:S\275\340U\240\275\nt|\276\035j\310<\377C\303<\014\225\001\276\213m\211>\254}\021\2767\253e>\246\300d=\216\321;>\200?\202>\031\033w=\357\022y=\334Y\243\273xr\001\274s\217\200\276$\207u\276\242\316&=N\345e>\3445\275\276\307B\314\276\261>B>f\223\227\276Z\356\267=\240\214\022>\353\nU\275\347\370G\275\2324@\276r(#>\236\330\245<\025\336X\275\234\300\030>{m\234>c&N\276Na=\273\311\212\315=\332C\005>\322\3024\276\2704O>\274*\243>x<\307>\220\2635=\320\000\006>\252\362\036\277\"X\241>:$!\275\306\265,\275\255\0206=6Q}>G\227\272\275p\333\266=\301\356\232>\376Pn\276\223\2302\276#\3458;_\366*\276K9\206\275\217\2258>\023\347\237\276\243\305\264=\375\221\234\276m\367\005>\227aA\276\201,\"\276\034\227l\276\023\370\251\276?\337\262\275\260x >\261\351\177\276\272\242\243>_D\230\2766Q\251\275\341\364Q=\004?L\275.Rp>(\025\201>\304\347~\273\017\010\311=\023]!\276\202y\200\274;\035\025>\231Z\n>jld\275\314\267\221=0\306\031=\177\331\230\275\261K\246>c\'Q\276\214y\266\276\22078=\251\246\301\276\342\370B=\267\303}\275\276%\253=x\344\210>\275@\245\276\363\375\326\275.<\317=\327\313*>\"(=\275ML\226\276I T\276S,\036=\310\220\271=?\322_\274mZ\247=\271\320}>\235\377+>\361\322\334=\320r\005\275-&\266>\335\3247>j\210\'\276\307\336\211>"
      }
    }
  }
}
node {
  name: "sequential_1/dense_2/MatMul/ReadVariableOp"
  op: "Identity"
  input: "sequential_1/dense_2/MatMul/ReadVariableOp/resource"
  attr {
    key: "T"
    value {
      type: DT_FLOAT
    }
  }
}
node {
  name: "sequential_1/dense_2/MatMul"
  op: "MatMul"
  input: "sequential_1/FirstLayer/Relu"
  input: "sequential_1/dense_2/MatMul/ReadVariableOp"
  attr {
    key: "T"
    value {
      type: DT_FLOAT
    }
  }
  attr {
    key: "transpose_a"
    value {
      b: false
    }
  }
  attr {
    key: "transpose_b"
    value {
      b: false
    }
  }
}
node {
  name: "sequential_1/dense_2/BiasAdd/ReadVariableOp/resource"
  op: "Const"
  attr {
    key: "dtype"
    value {
      type: DT_FLOAT
    }
  }
  attr {
    key: "value"
    value {
      tensor {
        dtype: DT_FLOAT
        tensor_shape {
          dim {
            size: 52
          }
        }
        tensor_content: "\226\254\326\271\333\326y\273\214\030\305<\224\214~<\322\345\377<\223\004v=4\024\304<\300\325\276=jO&\274\356\343\264\273\225\307@<\020A\335<\334\rL=V\306\002\276s\032O=\363$\016>\321\024&=\322S\233=\266\271c=\362h\022>\231\020@>\267ZM>\'g\032>\333\317\357<\367\202f\275\370\265@:Kp/\274\000M >\261\030S<\330\243\030<\316\016\010\277\005\337c=v\177\025=W\336\354<&\215\236=^\223\n=\301]\204=\245\022\017\275A\274\222=\227\270\027\275\335\240\215\275\277Z\355<\362\304A=\350\355 \275dP\311\274\254\\\232\275\311CZ>2oG>Y\006\240=\325\244?>\027l\206;\316U\273<"
      }
    }
  }
}
node {
  name: "sequential_1/dense_2/BiasAdd/ReadVariableOp"
  op: "Identity"
  input: "sequential_1/dense_2/BiasAdd/ReadVariableOp/resource"
  attr {
    key: "T"
    value {
      type: DT_FLOAT
    }
  }
}
node {
  name: "sequential_1/dense_2/BiasAdd"
  op: "BiasAdd"
  input: "sequential_1/dense_2/MatMul"
  input: "sequential_1/dense_2/BiasAdd/ReadVariableOp"
  attr {
    key: "T"
    value {
      type: DT_FLOAT
    }
  }
  attr {
    key: "data_format"
    value {
      s: "NHWC"
    }
  }
}
node {
  name: "sequential_1/dense_2/Relu"
  op: "Relu"
  input: "sequential_1/dense_2/BiasAdd"
  attr {
    key: "T"
    value {
      type: DT_FLOAT
    }
  }
}
node {
  name: "sequential_1/dense_3/MatMul/ReadVariableOp/resource"
  op: "Const"
  attr {
    key: "dtype"
    value {
      type: DT_FLOAT
    }
  }
  attr {
    key: "value"
    value {
      tensor {
        dtype: DT_FLOAT
        tensor_shape {
          dim {
            size: 52
          }
          dim {
            size: 26
          }
        }
        tensor_content: "\230.\303>\307\265F\275\371:U>4\205\240\276\361\362\331=\tyj>\314\\Z>\360\372\254>\201\303\321\276\264\205-\276\021:\010?P\026\317\276\024\034\327=\224M\302>8\001\310\275,\330S\276\\{\004=H\0100<V\246\362=\306c4?/7\234<~\234\315\276+\273\177=\017D\013?\266\025\313\276\227\360\323>\341^1\277\253^\212>U\373g>>\260\274>6\261\360=z\364\257\276\261\020\356\275\313\341\226\276\334\374\227>\341Qz\275|@\315\276\365\324\">\035\275\276>\337U\\\276\031<\013\275\362#)>\\2\214<\326\242\203>\317\020\257>)\244\330\273\325#B\276$q\253\275\250p\036>\3059\314\276>\334\351\275\204\261*\276\023\260\221=2\375\001\275\337\364\220\276\025\204\214\274({\216\275\326\372\227>\325\020\314<2_\200>\0074\212<\362\352s>\335\375n>\t\031\305>\210BT>\262\275\333\276\234b\014<H\210X=N\253\230\276\270K\236=\266\240\032\276\371/\227\276JC~>&\005\231>d\316\032\275\360\360\205>\364\264\271>\263u\206\276}\370\033>[\345\357\274\367D\235>\244\177\222>4\300\222\275\033M%\276\006g\343\275\003\031x>q\2322>U\2058>$\366m=5}\230<\016\204\005>\312\263\007\276\t\202\210=\325\350\203>\366\270\240>eCJ\276\331\342r\276\350\235\231\275d\360\203=\\\261\253\276\376H\216=uw\314>bs\r>S>G\276\366\362\246\275q\322-<w#(\275\247\345+\276av\250=\005\376\333\275\032\214\314\275\250u\244>\204\021\304\274]v\022>\366\337\204\275\353\351A\276\330\255\033\275T\3003>\\\007\231\276\013C\021>n\247\032\2761\325\006\274F\263\255=\022\2744\276\351>\324\276-\254\023\275\321#\250\274\313\234$> \271\003\276g\335/<\356xl\276D\227p>\302\225\026<UzQ>\224+\031>z\275\271\275\215?;>k\006T\276\317_\367\272i\335\036>\237\321\356=\003\2229\2764\341\330=\214M\230=\342%\301>\254\363\212\276#\256\300\275)\242-\276t\261\245>:\223e\275AD\361=\307\270\260>5\177\273\276\331\3170\275b\355\215\276\322\272\241>d\031\232\276\3731w=\275\027~\276+\027\347\275\025&w\276y\024Q>\t\365a>t\203%\277\301\303\271\274\312-\235\2757\252\014>\303\355$>\3254\027>\257R2\275\026\205\324>\254\263\323\276\025\313\227\276\005\006(\275\234\227E\276u\323\226\276\261\245-=Z}\034>\026\2131\276\336\270E\276\222\025\271\276\337\234\331=\370f<>\177\034A>3\306\017>U\335\332>3\216\235\275\035\001\274\275\030Q\271>\204U\014\276\013\201\275>u\021\235<\010\367\371\276^\235\312\275\311Q\274\274\357\200\317\275= \316>\212\330\025\2763>\000>.\365\216>q\360\266>hQ\203\275>\240\001=\312\000\255>\247tQ>\335a\205\276\354\353/\276\224\321\262\276\372\201\213\276i\233\213=m\230j\276\372\341\010=\226\225\210>\3271\314>\017\215\'\275#\214\207=\022\225\233<\027,\035?\201\377\350>\210b\006?|(\227\276R::\276\376\035\372>^\373\207\276\253n\315=\317\001\206\276\027\204\340\276\005\213\353\276\221\241(>\251\376\340>\224\367\241=\357\273\024\274=\263a>\344 \376\276\371_~\274\027\013N>\014:*\275\332^x=!\025\371=\376\354\372=1\'l>\325oM>\020\234*\276\207\361i<\014%\304\274\373\255\223><~V\275\255+\n\276\326\236\211>>2\205=Cm\325<\036\016\033\276\303\005\375=-\371\217\275!-e\275dx\\>[D4>A\251d\276\342\346O\275\275\223Q>\013\rS\276\307\331\004>\211[\217=HtM=j\310\253=\343!\361=\303a\263\274?\232\261<\376\025M=\310\242\007\273\253\342\014\276\203\035\321\275\002r\370=.\204\255>o\021T\275\320\200\237>\351!\314\276\335f\344=+C\017\274=2\257>\3371\216\276\t\263\207\275P\326N=]\207)\2769\300\301=\245` >n\3369=+\355\345>s\237\035>\304\327\007?\360o_\276\333\372)>`\222\260>\205*\332\276&\270\034>\331\007->\317\030\026\276!V]\276S@Z\275Q\206\214\276\177e\274>\215>\377\276\252\246\244>\225\347\245>\234&\016\276\201#.=\233\366\034\276\202o\r><Jx\276i7\312\275\022b\325=\323\325\220=\267\207\032\277\240\216\n>^5\241=\3557\273=0\326\230\276\246\217\035\276<V\306<g.|>Z\233\177>\226\001\030\273\330\267\275\276M\257:\275\257\033\346=D\313+>TX\013=\025:\246>\026b\007\276{\302\336:B\357A>Q\026\244=W<\307=1#\356<}\324\212>\244\003\212=\354B\005>b`\206>P\217\013\277mE\376\274_\337\326\275\244\205l\274\336\230\224\275\320\216\277\276\357\323+\276\337\027\303\275`\007\373\275\2555\342\275\262*\324\276\370\326b\275\3432G\276\263<\023\276\t0[\276o\025\251<\2036n=\017\263\247\275\177[n<\340\232\231\276u\356V>y\202s>,uC=\246\253\t\276 \335P>\227\017==\007-\260=p*\264\275\3257\300<\347U\226\275\366\210\342>\222\215\242\272\020\217g\275\304\316\317>\257\324\014=4\375\362\275*R\263>p\211\025\275Y\303\356\2754\204\370\274\024\340\313<\"\231\277\275\200{\264>wZ\200\276]6w\276\366\307,\276aY\222\276\350&\213\276\203\006\341\275Zg\022>W\303\306>\002\352\216\276\340\0362>\3718\344\276\'@\037>\010hN\276\350\217(>=u\235>\032\264\204>k\r\353=\333i<>\031\331\276=\026\'\031>C\301/\276\266x\030>\237_C>;\325\243\276\341\3332\276O\3636>\260\273\241\276\24227>\353\023y>\235\330\236>\304B\330\276\"\265+>\272Y\003?\177N\344\276\310\000\031>\366\201\367=\226S\216\276n\t\211=\033sE\275\366,\177\275\254b\214\275%\310p\276\032\274n=\034\370=\276QP\003=5z\n>\260\"\005\276\352\375\246\276~\020\255>\004*R>\355\223!>M\337!\276.\314\224=\306\314\000>\300\024=\275\243/\311>\345\3079\276\274\3654<P\"\n\275\000~&>\304\013u\275R\251i>L\353\312\276\274\027\232=\262)\335\276x\026\214=*\235\214>\231\261v>uD\202\276\247\243\215=\305\371\020\275\252\334G\276Jw\323\276\366\253\010\275rM\245=\310\243S\276q\373o\276Wh\225=\n\322\232=fI\274=G\227\343=\353\305\251>\030\325e>\360F\020\276\026\302\t=\205\007\360\275U\221\306=JR\205\276lk\251\276\2426P>e!H\275\305\005\026\276\266\017T\275\342\353w<\355\302\021>= \334=\365\355|=K\225*\276\023\3124>\275\010\372\275\3610\271=3\304\262\276x\335F>v\321\212>\315\271k>S\363F\275\214+\243>E\225W\276\246\320o\276\340\204{\275\230\024|>\375o\350\274G\264o\275C\221\250>\366\215D>L\262\303=\004C\230>%`\301\276\032\007\250\276\313\026\372\275_\276\347;\243\364\036<\207\\\257\276\336\327\241\276\253q{\276\315\330\002\276\306$\300=\212r\014\276\006\242\357\273T\302\267;\335)\223>P\262\326>\317\377<=+\246\225\276\326\262\020\275\346\033\016\276\274\316\022\273Y\276\255\275\004*Y\275b\224\232>[\245\252=\366:V\275\356\332\330>\337\303\036\275\300b\322>\266fj=D\343\231\276\344\010I\276\346\272=>\322\240r=\301~\023\276i\035\035\276[j\004?\026\313\333>\366\323\266\275z\251\373=\\\241\232\2745$\307>\010,\352>\345\334\003?\255\022\021\275\032I9\277U\251\321>\232\2545= \022\202>\'\202\214\276\352\357\342>t\2027\276\305a\334>\300u\322>\226L\240\276\200\361 =C\303\367\275\322]\204\276\034x\t? \360\245\276\021\036N>w`*\275\254XY\276F?\230>\233~\334\276~\347\276\276\316\344\214>5\251\202=}M\327\276m\021\342\274\322 \272>\375\316\247>y!\251\276\267\207\017>\370[\222\276\204\274\020\277\372\255\032?:\177\013>\025\203\375>\177;6\276&yP\276\326G;\276\226\376+\276Md8=\201\230\225>\325s\303\276\255\264q>\272\341/>Wc\277\276\376,-?\232I\033\276]\244\026\277H\032Q\275\367\253v>\215\353D\276m`\265\276a$\"?)X,?W\022\356\276\325\033\364\275]\014+\276\2270\265>^\020\271\276\232W\350=\276\240\221\276sK\010>\025\007r>\375Pj>\007\326\023?\335\336\224\276\272\213\272\274\370\037\242=\035\214Z>\244\037\203=\206q\357\275\235\243\'>M\271\n\276\013\203\253>d\272?\276.\347}\276Q\371\004>\315,l>\200\026\262\276g\277\267\2758\363\250>\276\216\002=\377\257d\276\325\3618>\311D\034>\225\256O<\351\\j\276RM\226\276\256\354R=UP\256\276\225\232_\276\256\224P>\030\353V\276\021%\003\276F\263\336\275\203\003\227\27651o\276\260\027R\275K{\337=O|0\276\234\305\t>\367Xa\276\025PJ=:\257\254=\200\346\222=\243tJ>l\321g\276\201\326\021\2760\203\255\275\212\205-\2756}\277=\204\207z>\024R\226\276\010\211 >\337\302\271\274\007\310\014>\321OH>\000-\271\275i\236\253>\036X\005>\372\2530>0\313\207\275\265\224\315\275\276\366j>\251\235f\276@_\226>\214\010\004\276Wt$\275\310\220\225>\200R\276>\331\2468=\017\345\206>\241\365\215>+v\240\276\304\217\036\276\374\2460>B\217\306\275\271he\276\302Q\017=\341\346d>\231z\334=\210\304\025=\004\272#\276\034\270(\276\362\305\346>W\377\017\275\2010\276>h;6\276\007V\200\275\r\367V\275\000\023\n\277\360\346t\276\020\"\001\275\275\241Q<\277\331\230\276k\214\002>\3433\326=\372\177\251=\374k\211>\304\312\265=w\240]<v:6\276\230\004\206=\210\224s>l\0168>XUK\276g\362!\275a\253\025=Q\036\310>\010o>\275\204\1775\276T\341\013>\027\331\375=\\\202y\275\351?\300>\200\363\257=\341\r\346>D\342\347\276f\341\317=nl\321>\371\024\005>1\t\255=\342E\210\275\335\037\031>\375\311\352=w\337$\276:\2319>\260\217h\276!Y\221\276\327@C\275/-\023\276\006\227F?\007\221\\?\215\316\317>\254\305\003\275\026\2218\276&c7?\'\216&?cj\257\276\270/\237\274\227Q\212>\"\200,?xq\">4\375\037\277k\313\246\276\254W\330>\3054\007?r\306 ?X\257\233\276\274\274Y>p\210K>\335\331 \276\260U\300=N]\374\275b\211\362\275\003P9>P\306\024=.\336g>\237\264\253=!D\356< \027\251=~\262\n\276\370i\207>g\316T<\254m\021>;@n>\022y\267\275X\023\022\276\334\007\274>\312\224\332\275DN\202>6\354b>V\026[\276\364L\341\275,\361U\276\200\311C>\200\233\037\276\245\342\037>\014\023\177\275 \024\324\276\203\275(\277\306\315_>\3144\033\277G\016\362>%\353\346\275Ty\246>\010\006!>\375\367L>\313\203\222?y\350\203=\235#\201>\300O\244>q/\362\276\022@\323<\345][\276\374\024\324\276\334$\206\276n\266\331\276Z\355\200\276\200\303H\277\333\347\326\276\264\013Z?`O\026\277\2630#?\300\001\201\276\311\372\247\276,g\244>\203\237@\276\353\236\356>k2\r>\334iV<\261\367I=\261\3012\276\\\243\314\275B\324\203\276\302j=\276\340\316C=&H^>Hk\252\276O\240V>\303\270\250<D\005\257\276\007A#\275\377\314\252<\375\025\362\276\225\005\t\276n\305\230>t\002\017\276\377r\001\2760l\006>]\261m\276^u\375\2748\304\234\276\337>!>\324\374\255=`d\310\276N!\251\276\333 \215<\243\230X\276\375\363\215<2\203\374=\216\026\265\276\033\"\231\276\177\234\214>Q\0006>WI\211=\250\372\002\275|\327\366\275\364\257\261>\2056\267>f$G\276\003\202\362\274\257\270X\276\001\204\334>\"z~\276,\2218\276\3440\t\276\r\204\347=\2627\312\275Y.;>\272B\316\275\340\216g;\t*\256=S*\035?\t\324\300\277\004\333T=\210\336\023?\224N\202>\261\325\262\276\377U8>\247c\244>\326\224\254>\010\262\032\277\227s~\275\034/a\276!\237\374>\263\364\242=2D%?\316\366\251>\334T\334\275\324\310\215\276h^\267\276\326E\267>*\277\202=\264\262@\276\327\233\n\277\370\3632\276\214\311\220=in\014>K\301\270>\247Q0=d\246\207\275\001\373\006?\343\027\273>9\364\200>\014,\027>\323\271i\276\205%\315>\341\022\000\277\n\217\027\275R\001\331\276O\341=\276\303\2718\276\235\005\016\275\272\r\243>I\230\334\276G\005\247>\242P\273=\270O\007\275\220\275E=A(K>W\235P\276Aqf>\243\\z\276\222P\006\277?\033\031=P\r\227\273\003\376\273\275\334\003\337>\303\020O\276wG\001>d\207F>\355\330\207\275Al\034\274ksk\276\006\356\022\277\306\245\246>x\245D\273W\342\024\274]>\220\275\016\007\374>\001\263\276\275[l\252<\225`;>\356\312R\275\231@\324\275b)\236<\255YV>l\333\013:\233\326\316<\210\314p\275}\324\330<K0=\276\362\364/>\020S\017\276T\034b>:T2<-<@\276}\333\">\004\360\236=\030W\032\276=\367Q\276\274\360M\275\355\253a>Z\245\313=\326%\005=\224\312\205>1y\334\276\246\353\231\276\350i,\275./\026\276\266\233A=Z\242\270\275\264\320\305\276Lx\034\276:(\016>\321\247\261=%\270H>\370N\223\276\025\377C\276\305\r\314>E\t\265>?\3243>l\036 >g\236\260\276\274\335\316>_g\020>+\353\244>8\345\243\275\267}\342\276\374\257q\276\315l\005>K4\272>\026E\204\276\300\231\207<\317\027\310=\371\316F>\010\336<>\271P\217<>\240\232>w\3027<\022\n#\276\336\373\355=\373\023D==BX\276\312\"0>\211/\364<\241\204\">R\330\234\2762O\302\273\340Yr=\034\215\237\276\245\357\377=\032\330s>\315\331\257\275u?(?\265F\241>9\267$>\267\366&>\273\326\034\274D~\251\276\030\313\346>\263\253\325>\377\224T>\327p\023\276L&Z>*\375\370\275$\377n=\271d\035>(1\021>\306\312A\275[\336\203>5\233\317= r\315=\223[>\276\335\307@>\320\353N>9QU\276-au\276,\017\245\276\252\2404>\264\376\306>\274$h>\242\230\250\276\371h\201=Qd\031>\205\224\355<\2518\301\276\333$4=\264\252\352\276\303Q\322\275r\304N\276\241\"#\276\364!n=\247\253\"\274\223I\270\275\333\350\321=\367o\331\274\271k\310>\335!\231>Mb\244>d8\004>w)\276=~:\t?~_\321\276\375\353\334\274\205\031\244\276\266\010)>o_\362\276\034\006n=\224\266*>\207\260\201\276w\226\327\274\300\273\303=\000n\031\276R\201u\276\371\252\223>\345=\020\276\32737>\222\250\263\274\336\274\352\275\305\036\233\275D\036\007>L4\211\276\234\300B>20[\275\035\250\222=\207\371\243\274\"\357y\275d\231\033>\366\223^>TL\360\276\254|\225=\317\021\231=\207\304\300\275\344[\002\274\367y\214>@|\210=4H<=\242\023\350\275>{u\276\254\271\001=A\347X\276\337\347\n\276\t\312\257\276\255\031\375=}\326i=:\023*>=\262\270>\256!\\\276\035\"\222\276,?i\275\277\031\024=\355\350q\275\267\306|>\016\330\220\276s*K>\314\022\356=[\251S\276\306Ie\276$\227\235>]\262\322=\301&!\2750\000\211>\022\'\310>\273[\020>\347\345!>sxV>\346\377x\275\311\031\274\276\t\016\332\275\265\021\331<\023\360(>b*$\276)>\240\275T\026!>\206rm\276\213\231<\276\252kz=\200\345\303\274\334n\304=6\3575>-i\332\275P\320\031\276aY\301=\357\354\004=A\"\231=\374\347\356\275\302\375\206\276\006\246<<G\360 >[\031\256>\250\\\026\276\243\275J\276\010\307F=\006\224}\274g*\325>\226K\233\276\036\337\213\275}\234\013\276\032}\007\277\312O)>h\302[>_\277\244\274\254\270L\275\362\032\264=\225}\362<\373\214\252\276H\375Y\2762\005)\2765g\205>\202!(>\227\2341\276L\270\204\276\2520\350=$\230\224\276>\274\350<B\177\303\276\303\354a\275\n\037\212\276\310Kb\275\3135\325\274V\nI=\267\204\002\276\217\3267\276\217\2442\275\333\302\222\276\n[[\276\330^\235=\213\032\251\275I\330\030>Pi\270\275\333\241\231\275q`\222>4Ne\2761o\300\276\014\n\370\275bf(\276\227h\277<\331\341\367\275\233\265\240\276f\026\305\275\371\263\224\276:\370:\276\027\270\003>#\353n\276l\217\027?\035\3424>^T\237>\255\260\226\276\035\322\345\276\262{\237>#5)\275\324\366$\275\376\020\324=n\256\035\275(z\013\276T\001<>\374ws>+\331\036?\212\303*\276S)\203\275F\014&> \007Z>9\177\200=\202\342j=z\325\225>~m\251\275J\320\247\275\352\035\341\276\323m\312\276\\\361T\276\205\034\337>\000p\363\276\342\232z>\211\n\014\276j}\212\275\034w\235<\243n\301\276k\246\027>6)\005?\376v\255\276\364\264/=\220\005\236\275\372-\303=\201\223\034?dxU\2763D\034>\013\224\264>*Q5\276-<\230\276\257\310\304\275\274\201\014?j2t\276=z\036\277\251\200\274<s\027\025\276\020U\356\276\177/ \276\222E\331=\351\000\213=y\000>\276\254(\252\274\"\002\336>\023\336 \276\002\222\177>\244\306\021?\240\265\005\276\321U\253\2745D\024>^\347\247=\244i\\>V\353.\277\340\316\276\276\027\265\271\276n\210\005?\020\364\320\275\215\307\375>r\002\306=-d\224=[\372\023\277\360\016!\276\007\246\264>\223f\034>\322\251\207>\220QZ=-rm>\360K\n>p\346P\276\014\241\306\276\315\255p=q\315%\276\237C\222\276es4=\353oQ>\3142j\276\250\344\356\275\267\311\247\276\220( \274\213\332\254\2740\223\214=B^\017=\352\243\201\276\031\347\247\276\326a\003>\207\313\345\276\200\256-\276\037-f\276\260n\036>\204\336i\276\357\227\234>\356\222\315\275\356\316\341=h\270\200=\271\256\207\276\n}\022>\033\332\017\277HP3\276b\005\022?`H\026\275Q\231\232>j\333\304>,f^\276\026c\023?\311\306\362\276\\\245\216\275HZo>\013\332C>E\335\334\276\216\227\022?Nq\003?\021\351W\276\346\014n\2765Z\244\275\025\3033>\310Lj\275\212\277\034>\324\227\246=\347\272\364;\324\027R>M\rY>\232Xe>n\202\303\276\337\331<\275]xf\275\200[\262>\252\201,\276\270a\'>\305Y\037>\255v\001\276@;\272\276\0008\224\276H9\017>\252\nu>\016G\225\276>u\217\276M.\001>?\231K>\375\315\263\276\306\355b>\237\237~>"
      }
    }
  }
}
node {
  name: "sequential_1/dense_3/MatMul/ReadVariableOp"
  op: "Identity"
  input: "sequential_1/dense_3/MatMul/ReadVariableOp/resource"
  attr {
    key: "T"
    value {
      type: DT_FLOAT
    }
  }
}
node {
  name: "sequential_1/dense_3/MatMul"
  op: "MatMul"
  input: "sequential_1/dense_2/Relu"
  input: "sequential_1/dense_3/MatMul/ReadVariableOp"
  attr {
    key: "T"
    value {
      type: DT_FLOAT
    }
  }
  attr {
    key: "transpose_a"
    value {
      b: false
    }
  }
  attr {
    key: "transpose_b"
    value {
      b: false
    }
  }
}
node {
  name: "sequential_1/dense_3/BiasAdd/ReadVariableOp/resource"
  op: "Const"
  attr {
    key: "dtype"
    value {
      type: DT_FLOAT
    }
  }
  attr {
    key: "value"
    value {
      tensor {
        dtype: DT_FLOAT
        tensor_shape {
          dim {
            size: 26
          }
        }
        tensor_content: "D\310&<\250N)>\236)\232=h\326^>T[\340<\343H>>>\345 =\204x\217=O\365\270<\256\334\036=\\\243\234=\016\331\313\274v\020\013\274\307\270\217=\250g\313\273\342x\265=L\030\014=)\177%>\000\020A>b\034\014>\203=\007>%C\336\274U\227\303;_\216\207=\256[L<\240\331\372="
      }
    }
  }
}
node {
  name: "sequential_1/dense_3/BiasAdd/ReadVariableOp"
  op: "Identity"
  input: "sequential_1/dense_3/BiasAdd/ReadVariableOp/resource"
  attr {
    key: "T"
    value {
      type: DT_FLOAT
    }
  }
}
node {
  name: "sequential_1/dense_3/BiasAdd"
  op: "BiasAdd"
  input: "sequential_1/dense_3/MatMul"
  input: "sequential_1/dense_3/BiasAdd/ReadVariableOp"
  attr {
    key: "T"
    value {
      type: DT_FLOAT
    }
  }
  attr {
    key: "data_format"
    value {
      s: "NHWC"
    }
  }
}
node {
  name: "sequential_1/dense_3/Relu"
  op: "Relu"
  input: "sequential_1/dense_3/BiasAdd"
  attr {
    key: "T"
    value {
      type: DT_FLOAT
    }
  }
}
node {
  name: "sequential_1/dropout_1/Identity"
  op: "Identity"
  input: "sequential_1/dense_3/Relu"
  attr {
    key: "T"
    value {
      type: DT_FLOAT
    }
  }
}
node {
  name: "sequential_1/FinalLayer/MatMul/ReadVariableOp/resource"
  op: "Const"
  attr {
    key: "dtype"
    value {
      type: DT_FLOAT
    }
  }
  attr {
    key: "value"
    value {
      tensor {
        dtype: DT_FLOAT
        tensor_shape {
          dim {
            size: 26
          }
          dim {
            size: 5
          }
        }
        tensor_content: "\267\007\252\276d\r\014\277H\207K\277hy8?+\035\005\276\212\223H\277u\004\250>\371\326\256>\023\225\210\276\314)\001\277Y4\252\276.\241\266\276\347*\256>&\207\005?B\247\232>]\244\212\277k\341\351>T\365\356>\3645\221=I\235\262\276\027\354\360>\277uT\277\256\2641\275\250\274=\277\233\013\222>z\326\024?\207V\313\276\305\243\004\277k\334\024\277Nc\013?\212$\005>\370\221+\276&\014\265=\032\376\217\276\3037\016>\t\033f>)\316\021\276Fsw\277\276;K>\244\271\013\276\215\221\221<\024\031\253\274B\240P>8\336\227\275\344\223\210\276\342Y\222>\244p}>n\207x>_\321\240\277\332-:>v$F?K\244\020\277\250p\377\276\210c\375\276\257\2269?\263\035\300>\331\014\360>/\243\305\275]\302\007\277b\010\036\276\275u\002\277\365\224\013\277~\377@?\034\314D\276\001\272\205\2764\267\355\276l\227\227\275\266\362\204=\363 \254>\021\262\221>\373m\260>u^\302>H\322\275>\304\353w\277\245s\251>\327\036K\276\221\343\033\276\254\343\006\277\223\312\233>J\216m\277:\205\343\275uq\214\277#iV\277S\033D?\r\257\376\275\242\315\265\276-\250\217>\266\375\201>\007L\215>\'\005H\277\037z\007\277\341\246L>\373\370\210>\'c\223>\"}\232>\222\315\225\276G\213c\277\027N\024\276\347T\271>\200\313\232>\325P\344<\020\315]\276\265$r\276\300&\222\277z\302\200>\230\267\275=\001\301\342>\000\213\344>\314\301\\\2762\233\355=\014\263u>\1772\032\276\242\272\000>\210\024\276>>Kv\277\321\231Q>\345g\204\274\013\303U\277\002\241\032\274\313\2221>x|\352>\336\276b>\'\r\243\275\363\016S\276\361\232:\277iTp\277\226P\n\277\2075\247<\037\327\364\274\306\377\204>"
      }
    }
  }
}
node {
  name: "sequential_1/FinalLayer/MatMul/ReadVariableOp"
  op: "Identity"
  input: "sequential_1/FinalLayer/MatMul/ReadVariableOp/resource"
  attr {
    key: "T"
    value {
      type: DT_FLOAT
    }
  }
}
node {
  name: "sequential_1/FinalLayer/MatMul"
  op: "MatMul"
  input: "sequential_1/dropout_1/Identity"
  input: "sequential_1/FinalLayer/MatMul/ReadVariableOp"
  attr {
    key: "T"
    value {
      type: DT_FLOAT
    }
  }
  attr {
    key: "transpose_a"
    value {
      b: false
    }
  }
  attr {
    key: "transpose_b"
    value {
      b: false
    }
  }
}
node {
  name: "sequential_1/FinalLayer/BiasAdd/ReadVariableOp/resource"
  op: "Const"
  attr {
    key: "dtype"
    value {
      type: DT_FLOAT
    }
  }
  attr {
    key: "value"
    value {
      tensor {
        dtype: DT_FLOAT
        tensor_shape {
          dim {
            size: 5
          }
        }
        tensor_content: "\003a+\275\360F\006=\263\331\014\276\335\267\272=tB3\276"
      }
    }
  }
}
node {
  name: "sequential_1/FinalLayer/BiasAdd/ReadVariableOp"
  op: "Identity"
  input: "sequential_1/FinalLayer/BiasAdd/ReadVariableOp/resource"
  attr {
    key: "T"
    value {
      type: DT_FLOAT
    }
  }
}
node {
  name: "sequential_1/FinalLayer/BiasAdd"
  op: "BiasAdd"
  input: "sequential_1/FinalLayer/MatMul"
  input: "sequential_1/FinalLayer/BiasAdd/ReadVariableOp"
  attr {
    key: "T"
    value {
      type: DT_FLOAT
    }
  }
  attr {
    key: "data_format"
    value {
      s: "NHWC"
    }
  }
}
node {
  name: "sequential_1/FinalLayer/Softmax"
  op: "Softmax"
  input: "sequential_1/FinalLayer/BiasAdd"
  attr {
    key: "T"
    value {
      type: DT_FLOAT
    }
  }
}
node {
  name: "Identity"
  op: "Identity"
  input: "sequential_1/FinalLayer/Softmax"
  input: "^sequential_1/FinalLayer/BiasAdd/ReadVariableOp"
  input: "^sequential_1/FinalLayer/MatMul/ReadVariableOp"
  input: "^sequential_1/FirstLayer/BiasAdd/ReadVariableOp"
  input: "^sequential_1/FirstLayer/MatMul/ReadVariableOp"
  input: "^sequential_1/dense_2/BiasAdd/ReadVariableOp"
  input: "^sequential_1/dense_2/MatMul/ReadVariableOp"
  input: "^sequential_1/dense_3/BiasAdd/ReadVariableOp"
  input: "^sequential_1/dense_3/MatMul/ReadVariableOp"
  attr {
    key: "T"
    value {
      type: DT_FLOAT
    }
  }
}
versions {
  producer: 561
}
