node {
  name: "FirstLayer_input"
  op: "Placeholder"
  attr {
    key: "dtype"
    value {
      type: DT_FLOAT
    }
  }
  attr {
    key: "shape"
    value {
      shape {
        dim {
          size: -1
        }
        dim {
          size: 26
        }
      }
    }
  }
}
node {
  name: "sequential_1/FirstLayer/MatMul/ReadVariableOp/resource"
  op: "Const"
  attr {
    key: "dtype"
    value {
      type: DT_FLOAT
    }
  }
  attr {
    key: "value"
    value {
      tensor {
        dtype: DT_FLOAT
        tensor_shape {
          dim {
            size: 26
          }
          dim {
            size: 26
          }
        }
        tensor_content: "\207\215\234=2\204\000\275\277\230\034\277t?\275\274\005\222j<\022\303c\275\025\263\305\275\226\260\243\275\370\367\004\275\351\274\304<\021\336\312=\362\215\300<\254\346\300\277:KW\272D]\371;\377X\035\276\342Or=<\261\271<\350Gg=\\\031\223;\270<\327=\010h\240=^\346N<(X\337;\2627\203\275\376\227\002\276\255\312%=\365\000g\275\020\370/\276H\024\237\276-\274\324\274Qf\330<A\000\024\274\026\304C\273\255\335\364<u\255\261\274\352\0362=\275\244\212=e\270\002\274!\230\247:\224\344\227\275\252\037\332\276J\371\251=\006\314\233\274\003\250\206\277UQ\370\272\246\3355=\310\220\254=\252\3203\274\333\261\362\275\264\306\033=\261\264\030>s*\322\273\264\357&\276\001q\276<9\317:=\217\332\335=C\201z>\327N\002>\313\200\201>\212[V\2771\200\334\273\020\010C\274\230\003\221=\177R\326\274F7\250;\362in>\354U\267\2769}\332=\017\001a>G.\340=\300ny\274\325\372\325\275\263\\\277\276!\032\300\2740\370\215\276\301~.>\235\270\177=\212$\036>\201\001\013\300}#\027>\023\313;\277\211\305t=\355P\003\276!\242p\276`RD=\006\204\306\274\377\200\243\274>\355\202;2M}<=\3016\274\235n\350;\260l\025\276\231\257\201=\255\037\237\274\2614\022>\212\272\022>\357L\351;\323<y=\204]\005\300w}\351;\322k\002@H\316\017\275fNF\276\245\376\257=\370f4=\004A\241=\013f-\274e\241)>tu\365<t\251\374\277\221\366\030<r\273.\300Bm\002<\302\355\036>x/\260\273^\316\301;\0323\201<\234P\021?\212\026\337=q\235\253>\035M3=\241\004\021=:\273\024<\244\233Y>\352|=>;\312\t\275I\323\034\275\236\207\302\273\t\362=\274n\352\201>\316\366\370\277I\036\240\275P\375\205\277\226\205\356;O\262\221=\264 \">}\311\252\275\037\315\260\275\226\271\340\274t\273\362=\267\202\343=\377;\376=\025q\022;\370\277D\274\255\030\364\277\230\023\014?\001\325^>\246+\222=U\346\025>\374\346)?\300\254\223?\361\222\215<G\264\215\276\200\327\277\275\314\022\346>4T\353<\313\212\006\277\204@\357\275\355\3374> d\311=\023G6=S\257\355\273\014\304l<\303\202\220\275\262\366\353\274\222]@\274\033_>=\232\370\230\274:\'r\274\017\222\332\275\252\374\002\276+\033\370=\304\r\217>u\365\237\277\355\r\200<\301\242o\274\352\247\270>\234~\227=\316\247\321\275}\017\301=\270ie\300\253\035d>\237\263_?Hg3=\303\263\241?\323\326S>\367\352\317\273\026nD\300,\322\255>\350W\034<\000\347\202=\276\223\021\275\321\210g\276D\235h\276V8\340\272\017\332\346\275\331\2653\300\2751\335\276`\350\353\275I\003\310\275\006\362+\276\253\261\245\277\363\230[\277P\216\241\272\372\340\370=[\230U=\312k\014\277$\t/>nC\245>\030\315\026\277{\235\260=\017\206\020?rG1\277KZ\212>\371\344\037\277\260\035*>j\010w?\004\200\033\277\371o\013\277W\300&?:\004\321\274\220Vi>\353\306\223?\367i\253>\321\376v?\227:\310\277\3503\t>\230\314\216?V\255\356\276J\322P\276\036)\035\277<X\320=k\"\254>]\302\005\277!p\246>J\264\212\277W\217e\275B\263q?\n\242\260?\350\204\004\300\'W\240\2774QR\277\323\354\251>\033\0260\275\251zd\276\272 \267?\361\025a>\200DU\276\313\244\366<\267\254\273=\352\371\256?g\311\026\300\371\342\235\277\220\033A\277\343\213\034?\025\227;\277\247p\267\274\253\214h?\377L\230?\204\t\374\275i\241\201\276%\007\020?\037?h?\377i\374\275\021<\024\277\354tB>\346e\261\276\010\2259\276Q\314-?\356#7\274K\\\233\277\021\032\334\276\340\235\'\275~%\243\276\027\2403\277H\330\'?\365\316\267?\000,\364?n|\275>Y\257Q?g\306\244\276=\025\265=f\3432\276\030{\353\2771?\007\300w\333\354=R5\330=\303\3725?\337R+<\236\351#=]\342\334\273\347\316r\275\252\201\250;*\2543=C\'/<\364\301\270=,\002a\276\357c#\276\005Y\275<4\263\320\273\364\336r\273-\306\311;>:T\275\206\356\363<\257\007\335><O\354<]\334\357;\364\317J\275t\271\324\274Q\210\002\275\367\\\304\274\202\304H\275\304\034\r=\254X\023\275\314\373A\276\337\375\272<\333\005d\2742\304,:\272\200\230:\177A\314=Q_E:gV\'=!\'\235=\360{\r\277\213yw;4.\321\275\275(~\275\306\212\351=\374d\000=F\332\325\275}\326\243\300u\354y=\003\027W;\272oh\273)G\005\275\361\221u=\263\243\370\274\341\356\260\275\010\216R\275\023\332\307\276\177\347\032<p\\\341<\255C5=R\366u=[=\344\275\260{\373\275\350xI\274\356\372u\275\210\204W?\270\347\267\274\340\315\311\274Y9\n\275\\\010\261>\022\367\221\276\207;\037>I\327z\275\227\231\377\2762\031\377\275~\177R=\334\031\210=i\2630=\013d\200\276,\021\337=\033\362\252<\255=f\274\221\327\216\275N0>>o\330\305\274{\354l=>\t\244\2759\326!=\241\235\226:\026(\201=\017z\327;\362\337<\274\260*\312\275\032\036t\271b\004\337\274\211\204Z>\266h\027?\323\324g<\325\226\225=<\334\267=:\326\306\275\376{\272\275ec{\274\214\250F=nzr\275dc\220;(\250D>\216\014>=\035\'\224>\254\220\377;x\216T=\354\357\301\274m\211\360\275\033\370&=^\341\037\275\007\331\302;\371\256\207=\236\366a\276\310w\231\274\311\357\330\273\372l\222=\371q\246=\274s\254\275\261\003\227\274\251\007\332<(\t\224>\300\273\307\275\300\213\000\273\334\336\304<\235\270\370=3\227\220:3\322\030\275\361\206W@y\313\246@b\232\034\300k\007<@b\262\222\300N\342W?\211N\303@\374\274\302\300\031\337\216>\364\313\273\301Z\005o\300?\240\007\277\3634\035\277\'\n\341\301oE\226\300\025;4\300\234\346\342?U\3258\300\251K\270\276H\035\236\275_\274\315\300%\345\207\300O\264\335\301\024\230\207\300h\017!?\277-\200\276\305\034\324\274\226\312\005\274\036F\225\273\222\265\017\273\026\2438;\360\225\244\2747\361\361\272%Z\001<\373\355\016=vH\3749.\304\261\274\245\370G<\334\322\276\274\376=\305:s\222\362<\324\253l\274[\364\027<R\005\202\273\370\"e\2744\000\371;\272T\305\273_N\200<;my;M_@<M\364\273\274\234e\305;\2124D?a\256s?\007\236\244?\234o\245\277\024\275\243\300\370\234\n\276\264\205\263\274\247_M@#\213\302=O\t\t?\303\212\346?y\230\317=ZNw\277\2718\317<P\267\262?\273\301\201?=\215\r\300\004[\302?\023\247\325>\306\246.?\177$\003\300\310\232\377\276)\325\203=5B\254?p\273\215\277)\010\227?9j\217\300\331\223\353>\235\263\217=#\313-\275@\271H?\343`\222\2756?\325>?B\254\275[R\247\274\257HN\277\277\354G@\260\326\247<\301^\224<\373E\245<@\332\336=*T\230>\245(Y\276\034a@\275\014v7=\034\245\224=\310\334V\300u)1;6\262\212\272\223\034\017\276\276\016,><\362!=\347\376\034\276\243\307\203>Cl\367=\312\224\t;D\265\261\272\253\227\305\275w\216\223>H\355\223\2753w\225\275\237D\340\274\330K(=\356\032s>\004d\212=\037\201\252;\020%\237>\223\355\331\277=$E\276\320R\344=\243/)=A\305\243<i\340\304\277\226_+>\346\206\265<\017(^<r)\207?b}\215=\363\215\311\274\235$}>\362T\341=\025@\004>+tH=n#\266\277O\370Z>\032b\306\272\255\341x>K\264\302\274\227\354\307\275b\220\341<\207\271-<\021y\034;g5\306=\366\267\200\276\2408\313=\032\207]=\304\306\203\276\233\324\273<\351\372\334\275%\300Z\276T=\306<\321\222\266\275\275C#>\310Q\250\276\330\270\354=\2170L\277\031j\254=\234@\341\276#\275\014>\262\206\367\275\251\234;\276}m\230=^\202\333\275[\354\245\27490\344\275\360\270\220\276\373A>=X\000%\274\321\262\222=rL&\275\365\356\367\276\262\022\025>#t\214>T7\035\274\014\273\313\275Z\311\252\277v\344\242=\345\260\030@\255\235\202\276\0160\306?\332A\035<\245cL>EU\205=]\323\205=\"\306\030=2E\353=\351\247T>~\304\273\277\300\022.>\344\204\t\275\037\210y\273\373Y\364\274\237(\322;\310\245\263\274/D@>\270\321w\275\256\207\374\275\325\345\022>\241\333k\276\302\356C;\272r\022\277\370\342\265=x)\275=]\333\t>6\004\021>#6\'>\244\334\354\275\272\372\032>x1\365>\276\2370\277\251\264\366=\375\262l\277\264\005\250=\003\234\366>\345\3358>\333\254\271\276\315\307n=\351\310?\276\234\r<\276g\032\205\2753\246\010\300\260\370\367=\225\304\213>\374,A=\211`\361\274\3715[=\371\202\311\274\036\0022?\311\212:>,p\367>\262H\244=\341V\247\277\354\354#>y\264\036\275\023\227\377>5m\257=\375\362\265<c\222q=\010P\210\274\340\317\002>\266\273\233<\014\3512=\346\340\225=\304\323;\276\276Q\333\275\251K\205;\n\317l\275\200\375\234=<[\223>D\277\314<3@\216=2\266@>\220\036]\275BX\331<\030\374\350\273k\237F>w\234\247\273\030\366\301="
      }
    }
  }
}
node {
  name: "sequential_1/FirstLayer/MatMul/ReadVariableOp"
  op: "Identity"
  input: "sequential_1/FirstLayer/MatMul/ReadVariableOp/resource"
  attr {
    key: "T"
    value {
      type: DT_FLOAT
    }
  }
}
node {
  name: "sequential_1/FirstLayer/MatMul"
  op: "MatMul"
  input: "FirstLayer_input"
  input: "sequential_1/FirstLayer/MatMul/ReadVariableOp"
  attr {
    key: "T"
    value {
      type: DT_FLOAT
    }
  }
  attr {
    key: "transpose_a"
    value {
      b: false
    }
  }
  attr {
    key: "transpose_b"
    value {
      b: false
    }
  }
}
node {
  name: "sequential_1/FirstLayer/BiasAdd/ReadVariableOp/resource"
  op: "Const"
  attr {
    key: "dtype"
    value {
      type: DT_FLOAT
    }
  }
  attr {
    key: "value"
    value {
      tensor {
        dtype: DT_FLOAT
        tensor_shape {
          dim {
            size: 26
          }
        }
        tensor_content: "&\036\323\274}\270B=)\256\265>\335mb>\366N\304\276\331\300\224?\370\331\232\276A\027 =y\021\377\275k\035N?\325\225\300?\"\'9?\020\320\027\277\304\007\314\275\352\330&?\320p\366\276 \033\004>Q\365\301?r\315\026\276b\245\002\277\307\360j\277\244#N\276\t\216\277;\341O\006??\'\244\276j\334\010\277"
      }
    }
  }
}
node {
  name: "sequential_1/FirstLayer/BiasAdd/ReadVariableOp"
  op: "Identity"
  input: "sequential_1/FirstLayer/BiasAdd/ReadVariableOp/resource"
  attr {
    key: "T"
    value {
      type: DT_FLOAT
    }
  }
}
node {
  name: "sequential_1/FirstLayer/BiasAdd"
  op: "BiasAdd"
  input: "sequential_1/FirstLayer/MatMul"
  input: "sequential_1/FirstLayer/BiasAdd/ReadVariableOp"
  attr {
    key: "T"
    value {
      type: DT_FLOAT
    }
  }
  attr {
    key: "data_format"
    value {
      s: "NHWC"
    }
  }
}
node {
  name: "sequential_1/FirstLayer/Relu"
  op: "Relu"
  input: "sequential_1/FirstLayer/BiasAdd"
  attr {
    key: "T"
    value {
      type: DT_FLOAT
    }
  }
}
node {
  name: "sequential_1/dense_2/MatMul/ReadVariableOp/resource"
  op: "Const"
  attr {
    key: "dtype"
    value {
      type: DT_FLOAT
    }
  }
  attr {
    key: "value"
    value {
      tensor {
        dtype: DT_FLOAT
        tensor_shape {
          dim {
            size: 26
          }
          dim {
            size: 52
          }
        }
        tensor_content: "\337\210\210?\317k\220\276%\321\223>\306\212\207\275mH\241\275\366\353\316=qg@\276\031>\333>\231Z\224\274\225\312i\273\251\260\327>\304B\004\276o2\234\275h\213\323\276)p+\277q5J\277Ci\017?v\371\006>[\244\213?\020;\214\276\031\342T\276\240O\024>\225V\334>\364N\334={m3\275L\221\310>\317~H\276\027\316><\006\000\213\276G\003\000?\016\235\306\276L\367\252\275F\221\205\276\362\372\257=\342\331\201?\261A\307\2751 M=\'JO\277\024\r\302=\226\325\362\276\304%.\276qR|\2771L+\276\354\346\034?X\032\301\276bn\235\277\226\210\221>\226\353\235>\002\021\234\275\000\000^\277\001kb>L\204\021\276\304\370U=\305+:?\367\251 \276\300\257f\2762~\321\274y\006\245\272\3053\311;\216\216#\277\231\352\370\275by\337=(\205>\276\244y\357\276\270\312C\274\323e\247\275\270\273\356=j\237l\276\022\363\225\275\347\210,?i\377E\276\"\367\311\276\001Ju?ra\220\276\2371\364<-\001\340>\211\233\000=@\004\213\275\362\255\317\275\234\021\301\276iol>\231I\242\275\374\333\335\276h\353|\276\211}\264\275\362\302r>\247\320\034?\300\223\225>\222\362\225\276\2568\311>H\340\270\275\267\344^\276\003\367\347>v}\262>>6\343;\021\216\014\277\260*\032\277\263\014\023\277\311S\317>\317^\247>\351\036\247\274\250\357 ?d3\213\277_\225\026\277\335\2355<\276\376#>$v=\275\242<\353\275\277\2627>\303\026\177<\025\302\354\276>\0331\276\375\243\266\276Q\031\277=\375p\241=S\314\\>\335\246\273<\257]\016\300\362M\032\277\225\006\333\275!\"\026>\351\000\263\276\023\343o>E\347\247>\032\271-\275\002\252X\276\346\014)\276\202\272j\276\2176\006>3\237\030\277\240\274 >\346f1=\t\312\'=\356b\346\276\023\310\375=\335\206\222>R\373=\276\347Qq\276\377\252\333\276\264\213)\277\215\255?\277\032\267k\276`\327\367\276\026g\033>\250\333h=\255\260\265\276\213\223c=q\233\275\276\330.\222>\221\0038>\371\224\254\277d\230/>\177\366\231\275\246N\010\276/\277\247=?}\254\275[\347\306\274\270~\357\276K\277)\2750\306B>\232nT?\245\277\352\274_C_\276\231wL\277\026\025\346>\004s\236=\346\346\002?{\220K?ka}\275\244\272\370=\262\'\256\276\237\345\265=\036xW\274\023\3219\275\241\347\036>\346\341\210\276\256\023E?\246Q>?p\222T=\270\023{\277P(\010?ZU\235>*\031\304\276\200+u>\272\323\323>\221\211\356\275\304+\224\277\230\225h=\321\270\341>\003\337H\277\344\\\320\276c\303\037?\367/\013?\027\177\333>X\033$\276O\332Q>\352r\346\275\250\314O>er,\276X\305\010\277\022}g\276\232G\213\276m\230!?\352t\377\276\311V\324\275\321\271Y\275h\222\026>e\201\222\2770\210\016\277\004^\001?\370\230\322\276\177\013b\276\261\020\032?\273\310g\273\212\256@?\211;3\300%\267\"\276\016<\t\277\t_\177\277XIy\277\006\222\037>\"\375\202\275\260\372\246\277\352iM\277:\377/\277\310\333\351\276\005\201\237\275\341b\350>\262X\031\277.5\265?\241\336\327>\221\273\031\276\263+\025@*R\255=N\345\237\276\305%\212\277\t\r\334\276EC\004?N\256\205\275\327Jz\276\010\242v\275#\220\221?\364\375\235\276W\305\365\275\266\215\222>\341\2413\277\264\303\"=\323\323}\277l\344\350=\237\305\363=s\257\342\275+\374=\277\272\237\252\276\213\254r\277\270\310!?\220\365\246?\004\\\025@\260q\032\277`\001\'>9\253\000\277\230\213\351=\217\337\001\300\335\211>\274>\356\203\276\227\003\246>Q\nR:\365%Y\276\027\351U\276\003\304\263>\325^\243>j\355\021\300\207\361S=i\223\360\275\352\244\003=ol\331=\363\357 \276ot\031?P\253\235\277\226\0101=\363z\257\276\216uw\276z\010\256\275\356\375\027>\004\252$>\201\3622=\2774l\276-v\313\276\004\226\377=\234\225m<^\010\306=\003i<\276\003\033\315\2756d9\2772MM\276@\360m\276\331>\031\277\216$\224>\312z\257\275O\203\031>f:\244\277yG\t\2771\033\002\276\327\267\326\273\220m4\276)1=\2760\'\222\274\316/\305=\216 A\276W\177=>Ub\032=[ 3\276J\303.\277aW\227\276\212\276\016=e=\207=BR\334>\306\377\251>D\344T;_\232\340\275\273\372\243\276H\002r\277\177<&\277\360\250\325=\235\250\212<}\326J>7\373>\274\\\026t>\257c\'?s`\224\277K#\217\276.`\322\275_\023\222>Hp\206\276\351&\027\276\370\3549>\276K\276\275\005M\033\275\2622\332\275\03158>\374:\014\277\243sI\277\274\237\304\276\342}&>\262\274V\275\303\005\300\275\360\250\333=|\266\306>\234\242\023\276S\270\224>\343\331\266>\r6\254>\2212\371>\037b\310\276\215\346\351\276\366\325\254\273\242fk\276<\237\310\276\223\263\363\276\346\334\205>\364\030\320=\016\347T\275\224s\255\2768\027&>D\026\002>\364f\243=}\225\362\275\006\305\\\276\020\377\200?\221\375\233\276\n\336|\274%\276\014?Rk@?\204uz\276\000 \362\274\243\250\332>\335\210\243>\2114\357=P@\202>\331\307\210=0R\035\276`\306M>C\024\001?U\305\200>\020\364\202\276\370J!?\210\321\004\277\204\304\024?\226\272{>n]\277\2771\322\003\277\326\004[?q!?>J^\255\274\260\311\005\276\032h\241>%\377\001>nW+\277#\341\203\277\377\003\n\277q\032T>j\202\357>\237\243\231\275C\314\376\276\004\273\327>\322\214B?\342W\371>\332\271d=\313\0375\277\311\274~\277\270\n\330>Ab,\276\301l\004\277J\223\235\275\221\027\200\276{\217m=,\005\210\276)i]=\241\022\033>C\021\300\276\211\270x\276\033\315u\275F\201\227\274\365l\013\277\264\314\"<\264\260\034\276\017wZ>^\212\014\277e\t\240=\254\337\243\275.\343\325\275\327\214(\275:\370\300\276\357\035_?\363\303_>\201#q>f\326.\276n,\272=\035\007\233>\005\274\324\275\224\333%>\032h3> P\364=i<\017\275\365\375\226\277\356\370\000\277\266\336n=\030C\002\276\376UU\277\364n\221\274\353\271\031>\301Xx\276\266H\016\275\362*\312\276s\264\232\276:A\003\276\036\251\335\276\350b\003?\262\030\226=B\313\225<\241&\362>6\217y>\000\305G<5\313\203\276}\027\007>p#\277=\274\301\201>\300\301T=\244\374\326\275\036@G>\304\202\352>\267\345<\276\306\000\206?\'\301f>n^\212\276\250K\255\275\216e\001?T\274\222?P\3620?\221\326\310=\226\243\025?\245\343w?\253\3637>\233\355-\277+\355=\276\033\300\371>Y\004\000?\200J\242?\320\300\031\276\300\345\335\276\245\353\272\276U\321K\277\220P\337;\014\207*\277\364\002^\275\017\335\251\274\017\226G\276\365\304\302>\265\271z>\030\203m>p\312E\276(\375\027>H\306\306\300fp\003?\207\217\303\276Y\240#\277Ev>>H5\202>}U\342\276\313\2072\276\213}+\276LC\204>@\001\r?\356\231\025\276\316\203U\277]p\312>i\236i\277>\346E>}s\211>\035H6>H\373\230>\227\225\027\300\350\r\257\276,\010\022>\2515|\277\014\201\213>\342\\\366;\301,C\276JX,?\277G\245>\234\370\010?\002\033j>\016\353\007\277\212\033\347\275\215P\231=\225\024G>=o\362>\214\'~=\331\333\275<\006\004\332\277\343\023\017?\243L\367<\325I\304\276\243\345\336>\234\375\\\275\020\013s\277\334\n\340;&VN=e\021\366>\301\364\233=$%\327=\032\223\222\275\036\202~=B\2476\275I\370\213\276\rM\375=\316b\342\271\350\017\331\275\252H\224\275V{\214\277\250\034\351=\362/\217>\353}\003\276\306\332\317\274_\250\207\276\025\226\226>\345U\200>\026-\303\276\th\272\2776-\022\277T\231l\276\343\371\371\274\274\372\035>\026\201\300>\373\001`\276[?\216<\352\335\030?F\034\314\275\222\312W\2751\315&\276\361X\213><\2510\275\333K\201\275.\315\212>\221S0\277^Zs\276\253\233\226?\036D-\300\206L\211>\320P\317\275I%2=\353\334\274=S\334\016?8\n7>\210`\205\275\3312\305\276\210dZ\275\250\n\216\276}7\036?\211Z\214>\340a#>P\346\214\275\214m&>\3646\343\275%\233!\2767\201)\276U\031\031\277\274t.\276U\306\301>\257\276\210>\362\274\016?q\r\020?\332Ch\274\370\275d\277\262\313E?c\217\225\274\260B\001\277p\372\304\276\026\371\256?1\242\037?/m\217\276v\255*>f\275\301=\362\202Q\275\212#f\276\311l\331\275\365\024\267=\370X\355;\235g\241>\301_6=\250\205\272\274\027\375F\274\341\320{\276B\235\262=w\013\307<\033#9>\247\262$\276\302_7\275\305Z\226\277Y\343k>Q\353\037\274\237,I\276\355\374B>U\3374;\000\360\354=\321R\375\275\274\341j\275\340\342\274=\\\217\032=]\300\206\275\255 4\300\327yX>\236n\335\275\370\302\253=\345\372\211=\230\345\274\275\037\317\002\274/\310<\2769\265\201\274W_\377\277&4\315=~H\332\277\267\223X\277\304\257z\300\345\035z\276/\r\001>*\273G\275\002\315_\274n*\270\276\260\004U>1\234\312=\217VK=\270\261\265\275\370J\207\2755V\361\276\010mO\276X\211Z\2763\267\037\277\266N\234?\320P\024@\204\2431?\210\262\362\276v\237\271\300\332\326#\276\0010\003?)1\005?\016Jb?\210i0\276n\220|?\335\271\210@\323\022\336\276\032\007F?\317\365\000\277\020\236\234\277\217W\017>\217\264 \276\327\202\267\276\213\022K\276ux\202\277_}\r\300aJ\201@6~\312\277\341\364Z\277-\330Q<\3274\361\277\234\276\031@trE@\344\3618?\231\024i?\227?\247\277\325\272\202\277x\020`?e^\256=\307(\210\277^\304\336\276A}\330\276\256\033\311\276\013:\336=\373z\330\277\323\371\256@\033\036\307?\330\330C@\226)\361\277+\247&\300.\252\346?\226\225\266\277\342\024\177\277\226\324\207\277eS\026\277\204\376\374\275\246k\344>h\325\'>\004\333\231> \365\275\275\304\'@<\326\032\244\275\271QR>\003;K>\234\352\177\276J\275u\276(\031\031>\252J\301=\264\232\362>\352)4>\362$\327\275WHP\277\271\'\000>\"\204\022>\250\2343\277\327\2638?\036N6\276\304u\277\276rk\320>X\322\025\277\336\030\246=\226\224\226\276\030e\022?\234\020\036\277\277\0166?\220+S?\321/\021\277\364S6>\341r\206\276\305\274\237>\242\300\023?\3560\376>\205\033~?\313\320*>F\312k>\232\016P\277.\201H>\227@\352\274\322a\022?\336\301J>\2761\215\276h\203\314\276WB\261\276<e\211\276\311T\203>Z\264<\276\\\010\267>\277\370\027\276\372\321\002>\227Y\t\277\244\331\"\277\006\345\307\275CC3\2738`_=~\301e>\230\356\211\2762\212\023\277[\310\275<X|\271?\024h\203=\227\227\212\276\257U\177\277\0373\207>\211\337\263\276\014Zy:^\340E;\320x\247\276\302\302Z>V\305Y>QA}=\033zN>\020\372i>3|\377\275O\225\334>C\254\355=\n\256\210\276\251\360v\2765\270\035\277\376\334\340\276\016,3>P\336w<\031/\013\276N\376\323<\225\024\360\276\333\243\\?\334\333\025\276=4\241\274\261\246\252?\3258\330\276\006\026<\275\220\230\224?\252\274\036\277\332 \326\276J<\204>HQ\306<\010=\366\275F\334\243\276\240\311a\276\273>\233>Q/\010>\236\242\036\276\2759\373\275\030a6>TD\311>\321\335\222\274\337\023\344\276\366\302\262\276\t\325\032\2776O\312\275e\362\364\275:\025\211?\366g6\276\257%\357\276\006GC?\236\2630\276K\333\372\275\035e\r\277\377\223\003>\233\240\362<\236#\244\276\002\031\220\276\035u6>-8\314\276I\010\017?\2777\377\276)|\231\276\010\372\032\2757\377\361\275t\2059>+xV\277\276\224\316\276\211j\234\276\337\230\266\275\351\247\315\276\216\270\305\276g\323\217\277^\263`\277\1777\201?\224\200U>\2165}\276\351\361\265\276~P\347=\243\004c>\2003R\276\240\251\334<s\307\004\277\301J\336>\276\305\374=\251\337&?\354c\001>B\374.\276\340\220\237<\361\210\226\276\262;\366=\367\003\253\2756~\374<\215\227\356<\250F3>Y\350\002\300E\204[?\212f\323=X\206\224>\351\"\362\276\370\245W\276nX\201=\017\262\\\276\266\361K\275\323\267\021\274\252\212\323\275\231cw\276cg\312>\2629\250\276\335-\232\277\034\307\321>\021)F\277\007\267m\277\2265\245\276\257\332\227\275Q\013\2559\\\257\316\276\006M\264\276\342:]>\010\020\216>\300\240\204\275\317y\203\276\374L\257>\331\000!>vH\305>\234?\343\276K\003\321=\363\347F?\245\330,\275E\037\300\2761\236\337\275\024\327\001\2773\216a\276\345\025O>Q\300\237\275;}\220\277\222\315\271\277\334\252$\276\364\346\274>\257\013+?+\225\252\274\035{)?\255ao\276w\2658\300\307\027\273>\231CC<\216=\370\274u\337w?\301E\027\277\023\256\200\276\2102;\276\362\224\275=-\2130>\203}|<>k\237=c\337x\276\340J\234<\302vd\276\323\325\225>\342\251\370\276~\211y?i\035\316>\336C9\276\267\3662={S\000>\003%\341>\331\221\n@\367\330\331\275vH\276\274\351\271\207\276V\366\025\276\241\020\245\276\210\225\345>I{\235>\314 \263<\002|\307\275o\366\334>\314i!\2775|\354=\334Z}>nN\037\276V\271\031?\303_J=\211/c?~z\350>\340\350\347\276\250\220)\276\361\351o>\003`\301=\242J\211>X\000\027=\310\021\230>\350\366a>.\003\256\276N\317\322<\020\260O\277\332\236\224\276\250pO\272s:2\277\246|\300=\253\'\177>\217\214<\276\235\\\335>\214\000\341\275Fu&\274\341\021\324\277s\223\320\276\353\177\364>G\034\260\275;\330\233>\033\227\343\276\372\200\261\276q\375b\277\246\213\275>N\372\361<~\033\031\276\262&~<\321\017\314?\203@\006\277\n0\026>\261\206;\276\\\341]>\177s\223\276\353\212+>\305\345\034\276\270`\003\276Sb\021>\243\032!\277]\212\245?W\365\031>9\372L?q\024\036>\003n\317\276z\362w?\352\020\r\276\361\366O?j\3130\277W\311?\277\372\322\000\277 \322\035\275_\274Y>\364\247i\276\'\275\031?k(\017\275\323LO\276IY_>\345=\020\277\226<%?\374\177@\276\375\353]\275=\232\201=5a$\276\033\365\266\276\004.N\277Q#\r\277\274\227\302\276\307\206;>v\366\036>}\353c?\376\321\030\277\233\2313\277=\3759>\307xK?A\177w>\022!Q\277\313\351\'>\017b\221=\345:/\2771\226\273\276\027\000\221=\233\360\036\274M\252\355=\272n\237\276\362\007A\277\323f\366=q\337M>\305\354\334<\032\0062?\r\354\031?)\344\322\276\327\245\302\276Y\363\313=\034*\263\276y6\017>\260K\247?`\017\302\276b\031\005\275=\366\270\276(W\270>Y\037\303\276\245N\216\276B\276\010?x\241\224=bD7\277\324h\000\276Kx\353\275\251F`=\354\334\202\277\370\033\241\276\363\022p=O\023\032?&\210\367\273\245\207\271\277M<\000\300\324\267\030\276\270f\'=\357\363\321\276\230\366_\277\n\372W=\334h\324>gj\203\274y\255d=cn\020\277\261\241\311>\273\310+\276wo\201=\223sw\277<,w=*\010\214\276\367\342\264>\277G\213=m\314\226>\233{\311=\302\357B\276\375\241\361\275\366D\276\276\272\354\311>E\364\301>L\034\006\277P=\321=\251\213\364\275\336s\035\277\031`\357\274E\364\233\277Ro\202<\331\365\031>\255(\312>\3067\237>\345\353\370=E\362\244\277\023\266\206>\364\357,?R/\327\274\377\207\253\276\020\233\307<\336\350!\276\221\303\312=x\016:\277y@\002\277T\260\323\276\260y\313>\331,\277>\014\\\030\277n\264\320\277\225\324\274>\231\364\217>\320C@\300\230+\356>\356\357\010\273\3256\302>\325\304\r@mFb>$}\350\276[m\t\277\204\367z<\3457\320>w\354\024=i#\256\276vR\345<@<6?\255)\250\277\342H\244>\3108_?\"r\340>Y\255\017\276%-\303>\362Qg?\360\224\207\277+\310\267>\342\324\255>+C!\275\341\342\236=i\004\361>\317\231\231=:\253`?\364?\005\277\272/\256\277\324v8?\244h\355\276\276\252\023\277\316\263\344?\353A\362?\213\232\351=\333v\264\276\220\302V?6\242\032@\273Z+>\3325+>\243\024\331>\001l#\277f\023\260\275\026\353?\277^\232\024\277d\276\"\277\234g\203>\251\340\250<\265\236\223\276\240\261\341>\246\304n=\314\\\267\274G\212\201\277\225F:>\374\323\235\274\325\325q>\253\034O>B?\236=\030q\361\276x+0\300@\351\247\274\005\033\036>\021\037\212\276e\n\002\300\316\246%\276\235\376\236>\272\315(\276]\374\010\276\302k\324\276\255\330\032=\007d\233\275\r\036I=\226\016m>\261S-\2748\0171\276\240b\215\276\005Z\332<7\020y>w\014M>\204\307\035\276\336L\005>P\263U=\224f\356\276\222,\227\276zK#=$\010W\277A#\200\275\213\322\037?Rk2>\211\264e\276;b\207=\337\245U=\236>\365\275\232\237G\275\272O\205>\306>\302\276\035P\252\276\205\"T\277\364+\007?_\252\215<_1\324>)\301\202=Z\336\373>\215\033\307>\020\241\364=3\263\024>\317\3451\275J_\255\276A\261\237?\316\215 ?\346\240\006?\315X\000>MJ\342>M,\274<\032\334\211\276\237\346\316\275\230\027\234\277A\255\232<\2246\205=\347-\037\276\377\277\223>d}I\275Q\216\304>I\200\245\277\210\027\322=t\037X=\036\246\372\273]EG\276\377W\306\276\375\017k\276\312([=\363]\261\277\212D\371\277\354s\361=\333<{\274\3417\264\276\"\302V\273\327f}\277P\240\032\2763\245-\276\313\344m\276\003\312\014\277\226\307p>n\021\253\276e\017\001\277\353=\345=\"d\317\275\2214d?\336G\242;\364\302[\277\360&\262\276\n9Y\274\2556b=W\3477\277\271\274\203\275\203\020\013\277\224K\260>\220\002r>\224\316\251=\030\347\332>_x\250>\375\025\336=\370G\236\276\325\366|>R\3507>\207\351Z?G\334o\277\020\365f\2760\rh\276\366\316\'?h\222t\276dU\231\276l\313\014\277\372\247\256\276f\217\366<\366\202\321\276\335\246X\275R\247:>\340\013\027@`\347\344>\030{.?1\222<\300\352\272u\276zy\303>\246B#\276\025GO?D\325\275\276+|D\2778\035\316\274\\\265\005\277\016\335\345<\366\251\037>Y\345K\276{o\236>\310\300\006>}L\321=\313#\004\300!\313\000@"
      }
    }
  }
}
node {
  name: "sequential_1/dense_2/MatMul/ReadVariableOp"
  op: "Identity"
  input: "sequential_1/dense_2/MatMul/ReadVariableOp/resource"
  attr {
    key: "T"
    value {
      type: DT_FLOAT
    }
  }
}
node {
  name: "sequential_1/dense_2/MatMul"
  op: "MatMul"
  input: "sequential_1/FirstLayer/Relu"
  input: "sequential_1/dense_2/MatMul/ReadVariableOp"
  attr {
    key: "T"
    value {
      type: DT_FLOAT
    }
  }
  attr {
    key: "transpose_a"
    value {
      b: false
    }
  }
  attr {
    key: "transpose_b"
    value {
      b: false
    }
  }
}
node {
  name: "sequential_1/dense_2/BiasAdd/ReadVariableOp/resource"
  op: "Const"
  attr {
    key: "dtype"
    value {
      type: DT_FLOAT
    }
  }
  attr {
    key: "value"
    value {
      tensor {
        dtype: DT_FLOAT
        tensor_shape {
          dim {
            size: 52
          }
        }
        tensor_content: "^\362\\??\373\035\277\005\351\202?\226D#\276/!\265\277\305\003\t@\247\032\261?z\245s?P\236\311\277\223\024H?\324\032\315>\231\000>\277\0030\215\2778\240r\277\2010\240\277wG\254\277\324\314!?\000\277\325\276\247\202\262=\230@\337\277\200!Y?PN2>\215=:>\306Q\'\277M\r\247\277\007w\254?\361B\213\277T\010>?\327\322\236?m\216+>\365S\233?\366\241\252?\353\023m\277\033\2741?`s\'\277\270\223\231?\357q\210\276\207_J?\342\034v\276\200\001U?U\213\020\277K\277l?\212F\300\277\322\n\232>}\251\231?\302\352\023\276\207ez\276\360B\237\277\312_A\277\200HR>\222x!?\270\2338\277"
      }
    }
  }
}
node {
  name: "sequential_1/dense_2/BiasAdd/ReadVariableOp"
  op: "Identity"
  input: "sequential_1/dense_2/BiasAdd/ReadVariableOp/resource"
  attr {
    key: "T"
    value {
      type: DT_FLOAT
    }
  }
}
node {
  name: "sequential_1/dense_2/BiasAdd"
  op: "BiasAdd"
  input: "sequential_1/dense_2/MatMul"
  input: "sequential_1/dense_2/BiasAdd/ReadVariableOp"
  attr {
    key: "T"
    value {
      type: DT_FLOAT
    }
  }
  attr {
    key: "data_format"
    value {
      s: "NHWC"
    }
  }
}
node {
  name: "sequential_1/dense_2/Relu"
  op: "Relu"
  input: "sequential_1/dense_2/BiasAdd"
  attr {
    key: "T"
    value {
      type: DT_FLOAT
    }
  }
}
node {
  name: "sequential_1/dense_3/MatMul/ReadVariableOp/resource"
  op: "Const"
  attr {
    key: "dtype"
    value {
      type: DT_FLOAT
    }
  }
  attr {
    key: "value"
    value {
      tensor {
        dtype: DT_FLOAT
        tensor_shape {
          dim {
            size: 52
          }
          dim {
            size: 26
          }
        }
        tensor_content: "|&J?\3217|>\200\210\\>h\211;?\347\315\301\275rU\247\276[\235p\277\353\275\303=+`f\275^\303\363=\371\232\251\276zJ\212\277*\316\200?\224\016X\276\212{\234\276*D\002?\233\006<\277\351\232_>\034\244\266\276d*\217?\374\236\364\275b\306\033\276\227\333f?c\026@?\021\205\320\273d\r\225=\316\nv>H[\016?\334\274F?Eia\300\ny\016?\\\234\255\277@:=\276\241\306P>\007\014\225>\267\223\210\277\251\224\025\300\013\206Q\276Gj\022>\345\021\304\300-\013\267\276}\254)?\023\314\375\275\373P\222>\263\314|\275\322\350M\300O_\230\276!\213 \277\312\373\026?\304\263!\277R\t\300>U\355\007;n\341A\277\330\023\260\275S\222d>\245\3430\276\031\234\375\275_D\327?\217\222@\277\326\245\250>c.P\276\370\336\">\315\374\256=ru\024\277\217&z?k\272\306\300\215\032\303\276F\247\031?\3225\363>\000r\023?\2165\337\276+\225\004?\244\222\214\275I\246\256\276\241\203H?\247\365\014?\226B\020?\214\375\362\274\371\372\356=\263]\007\2760\215\014?\317h\266\275\207!\'\277\334G->\316\206\242=1\021\310\275bhm=\237\252I\276\023\327\226\277\234\177\224=\317(\201\274\214l\343>z\242\314\273\222\203\t=\363\236\233>$*\337\274K\001\027>\n\260W\275\2529\376>=\263\202=\032\241\243\276\200\024\247>\337\334U\276j\2139?\367\300\375\275\325\347\235<h\351\356\275\021\340H\276\303\330\027>\312\222\267=\277^\021\276\337\242^\276\327\271d\276$\350\320\2762\031\230\274\024KZ\275\241\013\355\276N\341&?\351\227\320=\014\223K\277\373\373\t>\'\315\'\277I J>D\t\006\277\352\342\303\276\327\256\014>\261M\301\276\323\360\350\276\227\r\361\276b\177\223\276\006v\037\301\207(g?\260 \204\276z\212Q?\027!\225\275 \3254\300\222\330\204\277r\375|\300\374d\327\300\374d\026\277E\000J\276k\314\001?\336\001o>T\003O\277$y\310\275-\340\231\300\330\t6?\263\013\201?\336I(\275\217\005\266>\0272\276> \263\t>|\363\204\275\235\356.?K\357\247\276b\022?\277\334\317\365=B\004+\2762|\347>\177@\264;cY\026\275\366\036 \277\315\001\224\276\336hV\276\340\252\307\275gI=\2770\272f\277\361m\014\277)\307\025\276*\322\000?\260L`\276\377\260\233>\322\022\341=2\323\235>\217\376\223=\333v\232>RR\275\276\311\327\032>\245\003\336>\264\275\272\276\363\026N>\355\344\300>\326w1?\023\343\"\276\033\345\252\275\264\254\340>\031\252l\277\267F\005\276d6>\276\326]\267\275\225\342\016\277\321x\235=j\354\316=\303\234\230>Y\023u\277\352j\261?^v*\277\230\263\005?\243\317\224\276:\256\340=\370d\357>\321\021\305>z\037\000\300\342\244s?\362`U;x\006\226>@Ws\277\3336\037?\031Y:\277\033\324\330\276w\213\211>\036\332\253\276\005ud>\265F\267?\242[J>\275a\325\276\t\275\367\276\034\377\002>\363\327\220\275\316\242\354\275g\020\036\277\365G\305\276\014\302B?.\310\020\277\305N\310\276\200\315\251\277\310\303\236>l\247B\277\026\306\303=B\206v>\035L~\275\037\r\224\275a~\375=\313N\264\276\234\321\325>!9\362>\221\216]\276\234\356*>\031\300\216>\372\351%\277\256?Q\277l\216\273\274c\365b>\350\221\211=\306U\240\275\243r\306=3\020\334\276\242#\332\2774\246\030>vcw\276\363\261\310\276`\257\013?\025\361\225>\351\036\202\275\201d\265=\310o\274>\023\355\252\276\326U->\031=\264\276\336y\332=U/C>p\001\022>,\204\207=\215w\256\276\002\004\013\277\004p\204>\367\227\207?\257\376\361>\2249\240>\234\204\261>i\262\364\276\211q\034?\\\346\203?\276\264V\300\327j?\277:d&>\257Z\305\275\306M\310>h\305\021\277\2124\242?\230\275i>\252\247\343\276GJ\007?\354\201\302=\204\021M?Q\035\344>\221F\224\275\023\207\304\2754\255,?CI$\276\321\014i>(s\272=\312GV>\266^\334\273\207\357\247\276\372] ?L\022\035>\276\353/\276p\265\025\277\303\372U=\203[P\277\303\231\227=s^\026>\230J\233\275\361\337\203\275X\211\356\275\363\210\336\276\331\303\204>#\2335\277\265HT\276\300f\017\277\006\215\272>\003\037\225>\212\264\224\276\361\232E\276.M\307>\361\324\023\277\022>\341\275\227\365\301\275\225\024\324>\326\360\033?n\332\264>\246\000\235>c\3542\276\247\211g?ik\000\277\337\305\341=\017\r\255>rT\351>\341#x\276\377\343\000\277\352#\227?z\354\275\276\211W\257\276\274\203Y><\343\352?\322\376;\276\026\222\240>\210mZ>\002Q1>\313\016#?\316a\326\273BT\372>\251_\275=~\300<>\340\323E>\216\r\006\276\200>\313\277\273\231j\277\324\214\266\276\353\334C9H\340\225?\001w\007\276kqX\274;F\245>\220~\357=\rx\204\273\270\242<?0\200\206\277\361\260\024\276\211\232\221=&H\026\276\250\254:\276+\374\210>\225\271r\277\247\330%<nk\322<\235\033\211\276\202\314\243>\241d\207=\345\204\031>\315\364\200\276)\335\234\277\241N\024\277\372\341\240\276\346\027\360\275i\305\365\276\353B5?X\327\332\275\330\034\313\276k\005\357>\033c\342\275<r\251\2752\013\266=\004\377\253\277\216\263\'\275\313\310\330\277\300i\322<\034\300\265\277\332\260i?\333\'\2069\314\324\202=\227W\323>\303\367\202>\'\025\201<\244Kb=\027\330=\277\303g\356>o\203B;\033\316\341>4\247\217\276\200.\254\277S\252:?\261\'\203\300\373\n\315\276f\204\205?\026\252H\277\216dk?\336_.\277\356;X?\377\301\260\276X\345\024\277\2767\221?\253$\336=\204\323\345=x^\031\276\371_\225>\026\264\200=h\021m\276\323\336\237<f\0074\276\377\3244\277\357\273|\275v\205\320\275\205\370/\275m\222\216\276\356\2742=\035\241\211>6\372|\275\263\271N\276\006\350\007\276!\017\030\277v\351\212\276\366\002\336=\356K\316<#8\212\276\\[6\276c?v\275\013\364h\277|\025{\276P=\257\276\364\345\344=#\311\216\276%W.\277E\213\260\277\311m\232>\365\256o>\177\366\362\276\323\371\373>\006S\1779\362Y\323\274\034/\217>\013\241T?\375*M?\361i\326>\003\255;\300\216\340<>\377\276m?]\253\363\277\275\037\261\273\216\310\001=g\223\273\277\0253\352>Z&9\273\230 \037?2\253~>\370\035\014?\250c\200\277\317\254j\276\306\nZ\276Kp\033\275\351\316\250\276\347\025Y\277v\307\003?\304\333S?v^&?\233\274\262>f\224\'\276z\377\330=1\001\377\275\036\350!\276\004)\\\276\tbZ\275\320\332\214\276\362\261\232>z\357\224>(L\240\2763W\027?\323\257.>\016:\312\276\016%0=RN\226>\271\035|>HI\315\274\352d\367;\327\275\344\275\205\014\356\275}\256!>\264\251\256\276\257\253\220\276.X\234\276\223\362\246><ML\275\355R\264\275\ti\321=\256\331\244>.\335 >\202:M\277\301\353\261\276\212\331\345=\311ju?>E<\275v\216\241\276\224.n>\200\355\030\276\326\r\223\276.gq\276\340v7=du\235\277+k\320\276\2754\344\275_\227\272=\350\355\025\277\343-W>\365\224\201\2776}\222\275\203\360\212>\037\243~\276\203\337\357>\256\346\242>\036uP?*\037S?\261\242r;`\266\304\277\206w\303=\035n\t\276\r\373\373\275\260=\362>\365\242\035\275\014\016\023\277\276/>?9f\023\275\013K\241\276\243\245\350>\361{B\277D\260\000\277Zb5\276\347\t\316\275\217\320\331\276\273\215\017>\000\275\332\276<\237\245<W*\323:\246\305i\276\035\n\312<\253o!\276\2321\002>\332\250.?\232))?\030\352\315\277\201\225\023>\335\240\356>&P\214\2777\324~<uf\205=\222\021H\277\262\t\223\276`i\016<\366\233\354>\341\223\242>\211bf>\334\273\005>\016\254\t\277VQF\276\026\264\t\275\307\225K\276\335\340\021\2766\255\036?\323o\346\276\262\271\'\277\250\375\233>\247\335\276\276v\264\265\272R\374\216\276\325\234R?M\'\220\277\260\306 \276\035\246\310>\3020\205\276,5%?j\202\366\276\337{\016?\3369\203> \217\033\277\002\022\014?\355)\351=`\330\251\276\337\313\375>zQC\276\202%\010\276\321\003\357>;\346T\276\271<\235>\332\270`=\355]\017\277I\366\372\275\216\037&>\274#3\277\264<f\277\315\213\267\276\321\024\021?e(\330\277\370M%\276\310\351,?T\334\003\277=H\322>\355\336T=\247\354\037\276p3<>\340,\276\276/\241(?K\177{\2759\220\256>\212\224\363\274\266oc>\266P\007>,\020\2249\013\360\322\275\351e*\277\004\271\271\276d\t\314\277\275\266\">\341F\263>\374\324\247\276\035;~\276G\000\317\276\352\\\370\277\365\"\240\276\237\351m\276\346\200+\276\036\367\213\277\203\265n?\304\255\251\276\262\357h?K\002\226\276=5<\276gA\331\275:\267\000?,Jz\277\352\264m?\033\3128\2764kW\276\262\244\266\276\231\316s\276\310\322R\277\353\343\324>\350\224+>Z`\200\274\034\231B>\204Q;?\261<\024?\241\343\025?\026\265@\276<\335\261\275q\271\322=M%\256\276M\277\032?\310\340\340\274\275R9\275\2624\204\276\304xn?\351O\n\275C\207\352\276$E\317>\024\340)\276\274\033Q\277\235Z1>\254\335\305\274\334\014g\277\213\327\307\275\347\271\363\274\367\336\266>\335|\210>Q\006(\276\213\312+>\203\257Q?1\010A?1\222\013?\360,\303=\201\021i?\315\312$>\005\"e\277\022\022\236\276\333\326h\276\356\264\247\275\035\033\245\276O.L?$\365k\275\213p3\277\342\316\273>\344\004\310\276s\373^\277\332\031\232\275\255n\247>\256_\037=\027\253\374>U7\215>\256\0167\277P\353\204\276\017\244\221\276R^J\275\250Zw\276\036\333\225>\345\331p>\363K9\277\r\3454\277\225T\017>\374\373\235>\232P\253\276\352\'\223>\353\353\227>OZ\215\277\021!\350\275\0174.?\026\262\321\275\304\266\246=\337\034\016>\207\014\004\277\204\257\334>\022\260U?\332\313\202>\234\236\001?\367\322\353\273\357\031\300\277V\007\016\300u\322\037>\016<\334\275i\250\345\276\014\321\336\275B\342\'>8\277b\276\3461\340\275#\335#\277\223U\027?\325\370\023?\364\246M?a\2311\2755F\023<\344\366\215<X\034\366\276\344k\023?\341s\226\275{ h=[\246\247\277\345n\316=#`\001>\246\001\033\277\"\\\224\275]d\330\276m!\344\274\036\312\211\276\\\300\203=\221bK>{3\272=\204\005\300\275\233\302\331>\330\263\312>\340R\277<\007F\323\276n$\351=y\024|>N\210\230\2764S\265\275+\nA?\n\3110<\350Fz\276\234\272\315=\254\202#>\310A\214\275\274\032\337=\365\251\231>\225\254\n?\275y\343=\377v\036>\024\322\001?r\216\321\276\242\007\245\276\017o\213=!\021O\276Q\360o\276\303\2070\276\215X\014\277\304\261\014\274_\270\375\276\257\205\255\275\026JV=\226M\274>7{2<\010\233~=\250\202\030>\t(>\277\2228\261\2750\002>?\214p?\277w\262\217>sh5=\212\331\033\275\027\246\005>\371\251\221>\333\352\231>\026\2778?\273\230\'\277q?\013>j\003{\276h#\225=Qg\n\277\336JL\277I\211\271\274\314\242\270\274\3077\271=\215\331\205<i\314\240>\207\254\230\275u)Q?\014\225#>\224h\021\276\215\275C\2751\206M\275\257\204\372>\"\212\022\277K\363X\276}\332\333>^\254\242>ngc>\354/\207?\332t6\275\256\366f\277g\317T>9\327\031\277J\265\270=\354w\354\276\340i]\277\007\247\001\300s%>\277\345 \237\276\244w;\300=\353\342\276\277\207 ?\212\264\014\277W\2712> O\301>\215\230\252\276\310\326\367\277\021\261r>\234^\001?\350\353\245\276nW\232?FS\364>\345\236\027\275\3200\263>q\343V\277\272\007\r\277|\320;=\210\226A\277\217s\210\277!$w\277\315F@>6gG?S\230\302>\304\'H?\"\342\025\277\336\025\275=\215\321\353\274\014\355_\276\005<\205\277\355\272\'?\232\372\017\276\256G\302\277O\352f?ta\024?\264\324\t\276l\323z>\016G>\277\204\241<>M9?>\332\013\'\276;\245\024\277\362Q\223\276|\241\213>5\254\276<\000\375\254>d]O>N\214\215>t\252\305>02$=\313\034\264>^\361\233>\220r\211\277kv\357<\002\236\275\276\303}\305=\276\357#\277Z%\233\276\252\361T\277m\025\'\275\231\354\016\277\014\355m<\253Wf\275>^\026\277\007\365\377\276\312i\034\275\262\232\316\275\037k\020?\0366\305<60 ?n\'\366\276\222\261\340\275\311\237I>8\370S\276\363IG\277^\221\221\277\330\331K\277\222R\237>P\361)\275\'n\215\276y]6?2t\t>\362&-\275\311\354P\275|\326\261>\334\334D\277d\023H\275\335t\304<\370|\311\276)\300\366>s\032\014?F\031\373\275\211\001\211\275\320\230\r\277}y\000>\343\260\030\277\355\317\003>W\244\301\276n\333\244\273\177\322\306\275uQ\214?\202\"\035?e\237\237>>\252\252\275\314\037\036=\261k|=\213\376\240\276,\223\010\277\304 N>_\301\243\2755\357L\274\3674~>.~G>vsZ\276gSe>U\243\252\275u5M\277>\010\312\276NTT\276\'t\227\277\001m\344\275\3606\257=9\234\206?\313\337#>\205\331\226>\336\360(>\027$\021\276=b#?Q\215??l\3452\276\201y\314\276\021<\253>\013\362j\277m\354\317=\242As>V\014G\276\302\366\335\276\234\"\020?\302W\273<\373\361\237\276O7\274>\3115h\276\016\365S\276\261\305\252\276? \271=\213>S>o\306.\275\3246\013\275\213f)\275h\227\320=w\030\022>\275\242j\277\342\266\312\276\016\245\024\276\254s\'\276\334\025\224\276.)\255>\206 \000\277L\213\025\277\2031A>,n3>\001\211\310<\262VY>1w\016\277\202hu\275]?3\277U\r\270=o\377\021\277F\345\347>\304z\031=\310\013\217\276C$\221>\035\336\305\276\215R\235\276U\r\253>\233\2216?\005fS>\022D\010\275\235\212F=\001F\021>\333\236=\277\3325}>\261^\027?H\tA=\022,\031\275\323D\\\275hZ\277\276\346\316_\2752\224r>F\352\304>\325\035 \276C\331l>h\r\037\276\362\225\022?\342\266\322>X\005\240\276U\2019\276\233 \220\276\010B\344\275q)\201>\257(\334>H)\211>\270b^?@HD\276\334\230*?\302\316\251\276rZ\277\272W\r\352\275\375\334\252>\234\357\276<L\0375\276\037\016\234\276\025qj\277\354\366Y\277\345\300\002\277\353:\201>Ym\010>\010\225\206>\215qG>\246\330\264>\3441\354\275Y d\276\030\220\263:-\235\010\275\247/Y=\017\267\000?\304\033\342>\311\377o>P\'\221<\306\234^\276G6\213?\"`\263>\325\261\200\276\001\3315\277\245\360\212\277\316XI>\222\nG\277\324\013Y?6%*>d^!>wg\212\276*\022\022?;\274X>\211J!\275\260\356K\276u&\215\2750P\313>EK\265\276\014\020/\275\323T\360>\262T\236>\253\3070>\006^\023=Ld\344\276\302\223\333\276\223\260\003?\231\303\217\276Y\322\354\276T\024\371\277]z\223?_W#>\321\240\022\300{\274-=\317\324\001\276\321\315\270\276}Q1\300\324N\026?kTh\276\267\237h\277C\350\266>%1\330>\210\211^\276qx\232\274\231:\304\276\317J_\274\026}\321\275(^5\277y\004\300\276\315\216\205>\025A\244>\304\005\210;\222\364\331\276\243\314u\273\034w~\275\210\016\032\277\254\ts>\2308\r?\021\330\253>\r\220\363\276\346t\260>\223\035T\276\342\300\354\274\322_\206=\331\373\347\276\224\3107>,\271/\276o\033\027>\267\276\037\274\271\017\220>)N\251\275m\273`\276\362\032\340\276\215\367\242\275\336\251\220\277\\\331a\275\212\3259>]1\316=\235 \267>;\266\347\276\357\2050\275T\272\324>\206?P>\031\016\217\277z*\240=N\3252>,\232\227\2765\003\273>_Z3>\373gV\277p\037o?\361\003\004\277H=\301>\370a\031=\006T#\276:e(\277\004Z\313\276\201>+=x\250\002\276m|A\276c\255\\\275\177%\266\275E\244\206>\207\317\361\276\337\014\013\276\030\364\234=*\236\016\276\034P\234>\301k\344\276\2023\021\277\357\377\254>\201\266p\277\354\273\\\277\231\216o\277K[\000>\271\362&\277\350\377]\277\227\202\306>\004&\026\277;\365!\276\266L\003<\251\223\273>O\016j>D\262\274=ua7>~|\215;\323\340\330>\257\263\337\276\356&5\275\224\335\030<\233\265\210=\204\2170\276k)\333\276\353\r\373\276\037\366^=\377S\316>\032x\001\276\236t\036?\033X\375\275\343\363\363<P\372\235=\241\342\336\276e=\324\276\307A\243\275hj\363>\233\362.\277\302\324\234>\362\3063\276\024\3233\277\333\351\211\275\266\273\202\276Q@\311\276J\203\323\2762\344\231>\242E)>/\007\356\276\022\263\346\276U\3257?x\226u?qv\251?m\325t>N\2605?B\rZ>EW\365\275R\251G\300\227\3273\277k=\264>\310\352G\277\333c\024>\271\032\003?\006\021\202\276\355\331\216\276\302\254z<\014\257S\277\224\354\241>\246\333\320=jWk?N\270\t>&Dq?q\346B\276h2\002\276\215\303\005>\'\333\027>\221\361C>1`\227\2765\266\253\277\253\345\346\275t\337\026\277u\'\375\275F\343\207>\323n\264\300\333\217\312<\3620\266\275wOE=\232;\240\275\206\205\201\276\343,\013?\001\253\360\276\201g\007?\212\r:?\037\254f?\257\234\002\276\203)$\277Fe\331>\006G4?O\346\235\276\226\371\301\276d;\325\275\223b\024\276H\315Z>L@\024=v\273\255>a\224L\2775\246}\277\242\374\n\277\367G\266?\312\220\213\276\255q\200\276\366\254z=D\245\020\277\r\261(?]\221\230\2768Q\032\276\377\353\234\274\213\367\007>\316\367\243\277C\366\214>Z\245m=Z|\234>\342\006#>\225%T?\023FB\276Icq\276\233u\215>\206O\253\274\377\221\355\276\026\377E\277\303\371%\277\'\273\364\275_eI>\350GW\276\203G\036?:-\260\276\250\025Z>f\206\014>\355Z(>\216\340v\276*!{\276\364\253\n=\006\303\254\276\371Q\324>)/X>&;\346\276q.P\276\214\346\220\277Z\207\372\275Tx\207?\321s%>T\330\227>\2544\247<\007\237\370>\354\204\021?|v\251\277\007\336\217?a\206J=\203\3247\300L\205\033?\313JF\277H\272\253>\036\\\224\276\024\2765\276\3530^\277\'\376\354>.\234\363\275\276\244:\277\013\263\300>\271\365\223\277\023Y\t\276"
      }
    }
  }
}
node {
  name: "sequential_1/dense_3/MatMul/ReadVariableOp"
  op: "Identity"
  input: "sequential_1/dense_3/MatMul/ReadVariableOp/resource"
  attr {
    key: "T"
    value {
      type: DT_FLOAT
    }
  }
}
node {
  name: "sequential_1/dense_3/MatMul"
  op: "MatMul"
  input: "sequential_1/dense_2/Relu"
  input: "sequential_1/dense_3/MatMul/ReadVariableOp"
  attr {
    key: "T"
    value {
      type: DT_FLOAT
    }
  }
  attr {
    key: "transpose_a"
    value {
      b: false
    }
  }
  attr {
    key: "transpose_b"
    value {
      b: false
    }
  }
}
node {
  name: "sequential_1/dense_3/BiasAdd/ReadVariableOp/resource"
  op: "Const"
  attr {
    key: "dtype"
    value {
      type: DT_FLOAT
    }
  }
  attr {
    key: "value"
    value {
      tensor {
        dtype: DT_FLOAT
        tensor_shape {
          dim {
            size: 26
          }
        }
        tensor_content: "\257g\210?\267\340\254>($K?\302Z~?\020\326X\2772\331\302\276\200W~\276=\324v>R\305\017?y\2252\277YFr?\030\252&?\002\246\213>~\326g?\266\036\301?\n\212\002?h\252\255?\320\267I\276\324T\202?\007\275\304>\357\344\212>\261!N?JH&?JEu>j\302\230?\244\022q?"
      }
    }
  }
}
node {
  name: "sequential_1/dense_3/BiasAdd/ReadVariableOp"
  op: "Identity"
  input: "sequential_1/dense_3/BiasAdd/ReadVariableOp/resource"
  attr {
    key: "T"
    value {
      type: DT_FLOAT
    }
  }
}
node {
  name: "sequential_1/dense_3/BiasAdd"
  op: "BiasAdd"
  input: "sequential_1/dense_3/MatMul"
  input: "sequential_1/dense_3/BiasAdd/ReadVariableOp"
  attr {
    key: "T"
    value {
      type: DT_FLOAT
    }
  }
  attr {
    key: "data_format"
    value {
      s: "NHWC"
    }
  }
}
node {
  name: "sequential_1/dense_3/Relu"
  op: "Relu"
  input: "sequential_1/dense_3/BiasAdd"
  attr {
    key: "T"
    value {
      type: DT_FLOAT
    }
  }
}
node {
  name: "sequential_1/dropout_1/Identity"
  op: "Identity"
  input: "sequential_1/dense_3/Relu"
  attr {
    key: "T"
    value {
      type: DT_FLOAT
    }
  }
}
node {
  name: "sequential_1/FinalLayer/MatMul/ReadVariableOp/resource"
  op: "Const"
  attr {
    key: "dtype"
    value {
      type: DT_FLOAT
    }
  }
  attr {
    key: "value"
    value {
      tensor {
        dtype: DT_FLOAT
        tensor_shape {
          dim {
            size: 26
          }
          dim {
            size: 5
          }
        }
        tensor_content: "\004[\247\276\235@\234:^?;\275\346[\215>\005\327\204\275u\237\007\277E\233B>c\357F>eP\023>\330\270\275\276L\313+=~\"4;\250z\201>d.\202>M\357\223>/,\364\276>\365\254>U\314\244>\242^\234>\3756\270\276F\020\205\276\306\335\237\276E`W\276\275\343\317\276=\346\006\277\326N\223>0\365\303\274r\216\334=#\211\246\275R\260\202>x(;>\210\336\321\276\275\227P\276\"\340\272\2753\305/>\355B\034>\231\363\302\276\373@\232\276\216F\263=\233t5>\331\312r>\342\001\214=.j\023\276\353\016\203>\027\214\214=\374]F>5\370:>\347\230\374\275\364\346\303\275xL\025>\227\013m>\007\234q>d\306\301\275<\010)\275\275yA>T\3573>:\240B>\277\271u\274\357\005\307\275\215 N\275\031.)>\237\315m\276-gX\276\244\360\372=^a\267\274\245\256\235<\256u\247<\336\307C>\203\227\'>\236\275\241>\377\032\261>#\024\241>\261\252\241>\001v\013\276\253\\\036\274\025n\265\276\355\014\226\276^\232i\276\311\370>\273\222\271D\277*\265H\276\300u4>\272py=\230\372@>\255s\234>!\273\253\275\200av>\350\023^>\242\036\204>\263\371\264\276{sc\277\363\211,>\261\255:>\241\255c\276KJ\260\276\276\320\352\275\236\3258\276\2027\212\275U3\025>\341\020)>\253\235\005\276\001\257\260\275\214\367\241\276(\342\205\276\0377\340\276\030V\304\276\221\317\255>\352C\240>\340\270\001\274\222\362G>-\323[=\242\245\314\274w\177\225=T\347\347=\010\230\210\276\247F\033>1E\353=\013\312\207\276\214l\241=\270\005\001>g\000j=\016\232X\276S+\372=k\325\256=\351EV\276\275\264k\276\270\033\201\276\264\233E;wN\343<\231\356\201="
      }
    }
  }
}
node {
  name: "sequential_1/FinalLayer/MatMul/ReadVariableOp"
  op: "Identity"
  input: "sequential_1/FinalLayer/MatMul/ReadVariableOp/resource"
  attr {
    key: "T"
    value {
      type: DT_FLOAT
    }
  }
}
node {
  name: "sequential_1/FinalLayer/MatMul"
  op: "MatMul"
  input: "sequential_1/dropout_1/Identity"
  input: "sequential_1/FinalLayer/MatMul/ReadVariableOp"
  attr {
    key: "T"
    value {
      type: DT_FLOAT
    }
  }
  attr {
    key: "transpose_a"
    value {
      b: false
    }
  }
  attr {
    key: "transpose_b"
    value {
      b: false
    }
  }
}
node {
  name: "sequential_1/FinalLayer/BiasAdd/ReadVariableOp/resource"
  op: "Const"
  attr {
    key: "dtype"
    value {
      type: DT_FLOAT
    }
  }
  attr {
    key: "value"
    value {
      tensor {
        dtype: DT_FLOAT
        tensor_shape {
          dim {
            size: 5
          }
        }
        tensor_content: "\026\253\236\276P\315P\276W\334q>\\\260>\276h\252\235>"
      }
    }
  }
}
node {
  name: "sequential_1/FinalLayer/BiasAdd/ReadVariableOp"
  op: "Identity"
  input: "sequential_1/FinalLayer/BiasAdd/ReadVariableOp/resource"
  attr {
    key: "T"
    value {
      type: DT_FLOAT
    }
  }
}
node {
  name: "sequential_1/FinalLayer/BiasAdd"
  op: "BiasAdd"
  input: "sequential_1/FinalLayer/MatMul"
  input: "sequential_1/FinalLayer/BiasAdd/ReadVariableOp"
  attr {
    key: "T"
    value {
      type: DT_FLOAT
    }
  }
  attr {
    key: "data_format"
    value {
      s: "NHWC"
    }
  }
}
node {
  name: "sequential_1/FinalLayer/Softmax"
  op: "Softmax"
  input: "sequential_1/FinalLayer/BiasAdd"
  attr {
    key: "T"
    value {
      type: DT_FLOAT
    }
  }
}
node {
  name: "Identity"
  op: "Identity"
  input: "sequential_1/FinalLayer/Softmax"
  input: "^sequential_1/FinalLayer/BiasAdd/ReadVariableOp"
  input: "^sequential_1/FinalLayer/MatMul/ReadVariableOp"
  input: "^sequential_1/FirstLayer/BiasAdd/ReadVariableOp"
  input: "^sequential_1/FirstLayer/MatMul/ReadVariableOp"
  input: "^sequential_1/dense_2/BiasAdd/ReadVariableOp"
  input: "^sequential_1/dense_2/MatMul/ReadVariableOp"
  input: "^sequential_1/dense_3/BiasAdd/ReadVariableOp"
  input: "^sequential_1/dense_3/MatMul/ReadVariableOp"
  attr {
    key: "T"
    value {
      type: DT_FLOAT
    }
  }
}
versions {
  producer: 561
}
